{
  "version": "1.0",
  "truncation": null,
  "padding": null,
  "added_tokens": [
    {
      "id": 0,
      "content": "<unk>",
      "single_word": false,
      "lstrip": false,
      "rstrip": false,
      "normalized": false,
      "special": true
    },
    {
      "id": 1,
      "content": "<s>",
      "single_word": false,
      "lstrip": false,
      "rstrip": false,
      "normalized": false,
      "special": true
    },
    {
      "id": 2,
      "content": "</s>",
      "single_word": false,
      "lstrip": false,
      "rstrip": false,
      "normalized": false,
      "special": true
    },
    {
      "id": 32000,
      "content": "<pad>",
      "single_word": false,
      "lstrip": false,
      "rstrip": false,
      "normalized": false,
      "special": true
    }
  ],
  "normalizer": {
    "type": "Sequence",
    "normalizers": [
      {
        "type": "Prepend",
        "prepend": "▁"
      },
      {
        "type": "Replace",
        "pattern": {
          "String": " "
        },
        "content": "▁"
      }
    ]
  },
  "pre_tokenizer": null,
  "post_processor": {
    "type": "TemplateProcessing",
    "single": [
      {
        "SpecialToken": {
          "id": "<s>",
          "type_id": 0
        }
      },
      {
        "Sequence": {
          "id": "A",
          "type_id": 0
        }
      }
    ],
    "pair": [
      {
        "SpecialToken": {
          "id": "<s>",
          "type_id": 0
        }
      },
      {
        "Sequence": {
          "id": "A",
          "type_id": 0
        }
      },
      {
        "SpecialToken": {
          "id": "<s>",
          "type_id": 1
        }
      },
      {
        "Sequence": {
          "id": "B",
          "type_id": 1
        }
      }
    ],
    "special_tokens": {
      "<s>": {
        "id": "<s>",
        "ids": [
          1
        ],
        "tokens": [
          "<s>"
        ]
      }
    }
  },
  "decoder": {
    "type": "Sequence",
    "decoders": [
      {
        "type": "Replace",
        "pattern": {
          "String": "▁"
        },
        "content": " "
      },
      {
        "type": "ByteFallback"
      },
      {
        "type": "Fuse"
      },
      {
        "type": "Strip",
        "content": " ",
        "start": 1,
        "stop": 0
      }
    ]
  },
  "model": {
    "type": "BPE",
    "dropout": null,
    "unk_token": "<unk>",
    "continuing_subword_prefix": null,
    "end_of_word_suffix": null,
    "fuse_unk": true,
    "byte_fallback": true,
    "ignore_merges": false,
    "vocab": {
      "<unk>": 0,
      "<s>": 1,
      "</s>": 2,
      "<0x00>": 3,
      "<0x01>": 4,
      "<0x02>": 5,
      "<0x03>": 6,
      "<0x04>": 7,
      "<0x05>": 8,
      "<0x06>": 9,
      "<0x07>": 10,
      "<0x08>": 11,
      "<0x09>": 12,
      "<0x0A>": 13,
      "<0x0B>": 14,
      "<0x0C>": 15,
      "<0x0D>": 16,
      "<0x0E>": 17,
      "<0x0F>": 18,
      "<0x10>": 19,
      "<0x11>": 20,
      "<0x12>": 21,
      "<0x13>": 22,
      "<0x14>": 23,
      "<0x15>": 24,
      "<0x16>": 25,
      "<0x17>": 26,
      "<0x18>": 27,
      "<0x19>": 28,
      "<0x1A>": 29,
      "<0x1B>": 30,
      "<0x1C>": 31,
      "<0x1D>": 32,
      "<0x1E>": 33,
      "<0x1F>": 34,
      "<0x20>": 35,
      "<0x21>": 36,
      "<0x22>": 37,
      "<0x23>": 38,
      "<0x24>": 39,
      "<0x25>": 40,
      "<0x26>": 41,
      "<0x27>": 42,
      "<0x28>": 43,
      "<0x29>": 44,
      "<0x2A>": 45,
      "<0x2B>": 46,
      "<0x2C>": 47,
      "<0x2D>": 48,
      "<0x2E>": 49,
      "<0x2F>": 50,
      "<0x30>": 51,
      "<0x31>": 52,
      "<0x32>": 53,
      "<0x33>": 54,
      "<0x34>": 55,
      "<0x35>": 56,
      "<0x36>": 57,
      "<0x37>": 58,
      "<0x38>": 59,
      "<0x39>": 60,
      "<0x3A>": 61,
      "<0x3B>": 62,
      "<0x3C>": 63,
      "<0x3D>": 64,
      "<0x3E>": 65,
      "<0x3F>": 66,
      "<0x40>": 67,
      "<0x41>": 68,
      "<0x42>": 69,
      "<0x43>": 70,
      "<0x44>": 71,
      "<0x45>": 72,
      "<0x46>": 73,
      "<0x47>": 74,
      "<0x48>": 75,
      "<0x49>": 76,
      "<0x4A>": 77,
      "<0x4B>": 78,
      "<0x4C>": 79,
      "<0x4D>": 80,
      "<0x4E>": 81,
      "<0x4F>": 82,
      "<0x50>": 83,
      "<0x51>": 84,
      "<0x52>": 85,
      "<0x53>": 86,
      "<0x54>": 87,
      "<0x55>": 88,
      "<0x56>": 89,
      "<0x57>": 90,
      "<0x58>": 91,
      "<0x59>": 92,
      "<0x5A>": 93,
      "<0x5B>": 94,
      "<0x5C>": 95,
      "<0x5D>": 96,
      "<0x5E>": 97,
      "<0x5F>": 98,
      "<0x60>": 99,
      "<0x61>": 100,
      "<0x62>": 101,
      "<0x63>": 102,
      "<0x64>": 103,
      "<0x65>": 104,
      "<0x66>": 105,
      "<0x67>": 106,
      "<0x68>": 107,
      "<0x69>": 108,
      "<0x6A>": 109,
      "<0x6B>": 110,
      "<0x6C>": 111,
      "<0x6D>": 112,
      "<0x6E>": 113,
      "<0x6F>": 114,
      "<0x70>": 115,
      "<0x71>": 116,
      "<0x72>": 117,
      "<0x73>": 118,
      "<0x74>": 119,
      "<0x75>": 120,
      "<0x76>": 121,
      "<0x77>": 122,
      "<0x78>": 123,
      "<0x79>": 124,
      "<0x7A>": 125,
      "<0x7B>": 126,
      "<0x7C>": 127,
      "<0x7D>": 128,
      "<0x7E>": 129,
      "<0x7F>": 130,
      "<0x80>": 131,
      "<0x81>": 132,
      "<0x82>": 133,
      "<0x83>": 134,
      "<0x84>": 135,
      "<0x85>": 136,
      "<0x86>": 137,
      "<0x87>": 138,
      "<0x88>": 139,
      "<0x89>": 140,
      "<0x8A>": 141,
      "<0x8B>": 142,
      "<0x8C>": 143,
      "<0x8D>": 144,
      "<0x8E>": 145,
      "<0x8F>": 146,
      "<0x90>": 147,
      "<0x91>": 148,
      "<0x92>": 149,
      "<0x93>": 150,
      "<0x94>": 151,
      "<0x95>": 152,
      "<0x96>": 153,
      "<0x97>": 154,
      "<0x98>": 155,
      "<0x99>": 156,
      "<0x9A>": 157,
      "<0x9B>": 158,
      "<0x9C>": 159,
      "<0x9D>": 160,
      "<0x9E>": 161,
      "<0x9F>": 162,
      "<0xA0>": 163,
      "<0xA1>": 164,
      "<0xA2>": 165,
      "<0xA3>": 166,
      "<0xA4>": 167,
      "<0xA5>": 168,
      "<0xA6>": 169,
      "<0xA7>": 170,
      "<0xA8>": 171,
      "<0xA9>": 172,
      "<0xAA>": 173,
      "<0xAB>": 174,
      "<0xAC>": 175,
      "<0xAD>": 176,
      "<0xAE>": 177,
      "<0xAF>": 178,
      "<0xB0>": 179,
      "<0xB1>": 180,
      "<0xB2>": 181,
      "<0xB3>": 182,
      "<0xB4>": 183,
      "<0xB5>": 184,
      "<0xB6>": 185,
      "<0xB7>": 186,
      "<0xB8>": 187,
      "<0xB9>": 188,
      "<0xBA>": 189,
      "<0xBB>": 190,
      "<0xBC>": 191,
      "<0xBD>": 192,
      "<0xBE>": 193,
      "<0xBF>": 194,
      "<0xC0>": 195,
      "<0xC1>": 196,
      "<0xC2>": 197,
      "<0xC3>": 198,
      "<0xC4>": 199,
      "<0xC5>": 200,
      "<0xC6>": 201,
      "<0xC7>": 202,
      "<0xC8>": 203,
      "<0xC9>": 204,
      "<0xCA>": 205,
      "<0xCB>": 206,
      "<0xCC>": 207,
      "<0xCD>": 208,
      "<0xCE>": 209,
      "<0xCF>": 210,
      "<0xD0>": 211,
      "<0xD1>": 212,
      "<0xD2>": 213,
      "<0xD3>": 214,
      "<0xD4>": 215,
      "<0xD5>": 216,
      "<0xD6>": 217,
      "<0xD7>": 218,
      "<0xD8>": 219,
      "<0xD9>": 220,
      "<0xDA>": 221,
      "<0xDB>": 222,
      "<0xDC>": 223,
      "<0xDD>": 224,
      "<0xDE>": 225,
      "<0xDF>": 226,
      "<0xE0>": 227,
      "<0xE1>": 228,
      "<0xE2>": 229,
      "<0xE3>": 230,
      "<0xE4>": 231,
      "<0xE5>": 232,
      "<0xE6>": 233,
      "<0xE7>": 234,
      "<0xE8>": 235,
      "<0xE9>": 236,
      "<0xEA>": 237,
      "<0xEB>": 238,
      "<0xEC>": 239,
      "<0xED>": 240,
      "<0xEE>": 241,
      "<0xEF>": 242,
      "<0xF0>": 243,
      "<0xF1>": 244,
      "<0xF2>": 245,
      "<0xF3>": 246,
      "<0xF4>": 247,
      "<0xF5>": 248,
      "<0xF6>": 249,
      "<0xF7>": 250,
      "<0xF8>": 251,
      "<0xF9>": 252,
      "<0xFA>": 253,
      "<0xFB>": 254,
      "<0xFC>": 255,
      "<0xFD>": 256,
      "<0xFE>": 257,
      "<0xFF>": 258,
      "▁t": 259,
      "▁a": 260,
      "in": 261,
      "he": 262,
      "re": 263,
      "on": 264,
      "er": 265,
      "▁the": 266,
      "▁s": 267,
      "at": 268,
      "▁o": 269,
      "en": 270,
      "▁w": 271,
      "or": 272,
      "it": 273,
      "an": 274,
      "▁c": 275,
      "is": 276,
      "es": 277,
      "▁f": 278,
      "al": 279,
      "nd": 280,
      "ing": 281,
      "ed": 282,
      "▁p": 283,
      "▁b": 284,
      "ar": 285,
      "ou": 286,
      "▁of": 287,
      "▁in": 288,
      "▁to": 289,
      "▁m": 290,
      "▁and": 291,
      "ic": 292,
      "ion": 293,
      "▁d": 294,
      "as": 295,
      "le": 296,
      "▁h": 297,
      "om": 298,
      "▁th": 299,
      "ent": 300,
      "▁T": 301,
      "il": 302,
      "st": 303,
      "▁S": 304,
      "ro": 305,
      "▁re": 306,
      "el": 307,
      "▁A": 308,
      "▁l": 309,
      "ct": 310,
      "▁n": 311,
      "▁I": 312,
      "et": 313,
      "▁C": 314,
      "▁e": 315,
      "ve": 316,
      "id": 317,
      "▁g": 318,
      "ut": 319,
      "ol": 320,
      "ot": 321,
      "▁is": 322,
      "am": 323,
      "▁M": 324,
      "ur": 325,
      "ly": 326,
      "im": 327,
      "▁on": 328,
      "▁for": 329,
      "ad": 330,
      "ce": 331,
      "ation": 332,
      "▁be": 333,
      "ig": 334,
      "ay": 335,
      "ow": 336,
      "us": 337,
      "ch": 338,
      "ver": 339,
      "▁P": 340,
      "▁B": 341,
      "▁that": 342,
      "▁y": 343,
      "▁st": 344,
      "ir": 345,
      "ith": 346,
      "▁The": 347,
      "▁W": 348,
      "▁H": 349,
      "▁he": 350,
      "▁with": 351,
      "▁(": 352,
      "▁D": 353,
      "ul": 354,
      "ra": 355,
      "un": 356,
      "▁it": 357,
      "se": 358,
      "ter": 359,
      "▁R": 360,
      "▁F": 361,
      "▁as": 362,
      "▁an": 363,
      "▁wh": 364,
      "▁you": 365,
      "▁al": 366,
      "if": 367,
      "em": 368,
      "ers": 369,
      "▁con": 370,
      "ill": 371,
      "▁L": 372,
      "▁N": 373,
      "ag": 374,
      "▁pro": 375,
      "ri": 376,
      "▁E": 377,
      "od": 378,
      "ist": 379,
      "ac": 380,
      "her": 381,
      "▁we": 382,
      "▁G": 383,
      "est": 384,
      "and": 385,
      "op": 386,
      "ate": 387,
      "th": 388,
      "▁at": 389,
      "um": 390,
      "ab": 391,
      "ess": 392,
      "▁was": 393,
      "▁com": 394,
      "ld": 395,
      "pp": 396,
      "▁are": 397,
      "ew": 398,
      "▁v": 399,
      "ore": 400,
      "ke": 401,
      "ity": 402,
      "rom": 403,
      "▁de": 404,
      "▁or": 405,
      "res": 406,
      "igh": 407,
      "▁ex": 408,
      "ment": 409,
      "▁O": 410,
      "os": 411,
      "qu": 412,
      "oc": 413,
      "▁J": 414,
      "▁ha": 415,
      "ect": 416,
      "▁by": 417,
      "ort": 418,
      "ant": 419,
      "ies": 420,
      "ain": 421,
      "art": 422,
      "▁se": 423,
      "iv": 424,
      "▁su": 425,
      "▁r": 426,
      "▁from": 427,
      "ive": 428,
      "nt": 429,
      "ust": 430,
      "end": 431,
      "▁not": 432,
      "▁this": 433,
      "ud": 434,
      "▁have": 435,
      "▁sh": 436,
      "ight": 437,
      "all": 438,
      "▁ch": 439,
      "our": 440,
      "▁U": 441,
      "ard": 442,
      "red": 443,
      "▁u": 444,
      "ial": 445,
      "ear": 446,
      "▁“": 447,
      "▁le": 448,
      "out": 449,
      "ould": 450,
      "pt": 451,
      "ell": 452,
      "ge": 453,
      "ost": 454,
      "▁In": 455,
      "▁wor": 456,
      "rou": 457,
      "og": 458,
      "▁us": 459,
      "▁ab": 460,
      "gh": 461,
      "ast": 462,
      "ure": 463,
      "ome": 464,
      "pe": 465,
      "ak": 466,
      "ine": 467,
      "▁pl": 468,
      "ok": 469,
      "▁has": 470,
      "ich": 471,
      "per": 472,
      "▁can": 473,
      "pl": 474,
      "▁j": 475,
      "▁K": 476,
      "▁St": 477,
      "ions": 478,
      "ff": 479,
      "▁Th": 480,
      "ber": 481,
      "▁will": 482,
      "ide": 483,
      "▁all": 484,
      "ia": 485,
      "▁k": 486,
      "ack": 487,
      "ans": 488,
      "ical": 489,
      "▁int": 490,
      "▁whe": 491,
      "▁his": 492,
      "ated": 493,
      "ice": 494,
      "▁\"": 495,
      "ther": 496,
      "ong": 497,
      "▁go": 498,
      "▁do": 499,
      "ame": 500,
      "age": 501,
      "▁ne": 502,
      "ie": 503,
      "▁but": 504,
      "ry": 505,
      "ary": 506,
      "ip": 507,
      "ub": 508,
      "▁ad": 509,
      "iz": 510,
      "ous": 511,
      "▁cl": 512,
      "ue": 513,
      "are": 514,
      "▁me": 515,
      "act": 516,
      "▁en": 517,
      "▁their": 518,
      "cc": 519,
      "▁comp": 520,
      "ind": 521,
      "▁im": 522,
      "▁V": 523,
      "ass": 524,
      "orm": 525,
      "▁they": 526,
      "ap": 527,
      "able": 528,
      "cl": 529,
      "ult": 530,
      "▁cont": 531,
      "▁out": 532,
      "▁un": 533,
      "one": 534,
      "▁Ch": 535,
      "ime": 536,
      "ook": 537,
      "▁who": 538,
      "ep": 539,
      "▁which": 540,
      "▁more": 541,
      "▁Y": 542,
      "ance": 543,
      "ations": 544,
      "▁sa": 545,
      "ally": 546,
      "▁res": 547,
      "ere": 548,
      "ib": 549,
      "▁up": 550,
      "▁one": 551,
      "ire": 552,
      "▁your": 553,
      "ign": 554,
      "very": 555,
      "so": 556,
      "ru": 557,
      "ence": 558,
      "ord": 559,
      "▁so": 560,
      "ake": 561,
      "▁about": 562,
      "ite": 563,
      "av": 564,
      "ction": 565,
      "du": 566,
      "▁man": 567,
      "ace": 568,
      "▁$": 569,
      "ks": 570,
      "▁It": 571,
      "ase": 572,
      "▁app": 573,
      "ents": 574,
      "port": 575,
      "▁li": 576,
      "▁were": 577,
      "▁ar": 578,
      "▁per": 579,
      "ount": 580,
      "vel": 581,
      "ach": 582,
      "ail": 583,
      "▁year": 584,
      "▁tr": 585,
      "▁-": 586,
      "▁dis": 587,
      "ond": 588,
      "form": 589,
      "▁other": 590,
      "ile": 591,
      "ays": 592,
      "▁te": 593,
      "▁ag": 594,
      "ress": 595,
      "▁part": 596,
      "▁ev": 597,
      "ory": 598,
      "ition": 599,
      "▁her": 600,
      "ose": 601,
      "▁had": 602,
      "▁new": 603,
      "▁been": 604,
      "▁off": 605,
      "reat": 606,
      "erv": 607,
      "ll": 608,
      "ely": 609,
      "▁qu": 610,
      "▁our": 611,
      "▁sp": 612,
      "ens": 613,
      "mer": 614,
      "▁also": 615,
      "own": 616,
      "int": 617,
      "lic": 618,
      "▁its": 619,
      "ian": 620,
      "ov": 621,
      "vers": 622,
      "▁work": 623,
      "ob": 624,
      "ors": 625,
      "ang": 626,
      "..": 627,
      "ree": 628,
      "▁my": 629,
      "ild": 630,
      "te": 631,
      "ark": 632,
      "▁pe": 633,
      "ings": 634,
      "▁there": 635,
      "▁He": 636,
      "▁would": 637,
      "ish": 638,
      "ound": 639,
      "▁sc": 640,
      "ove": 641,
      "▁rec": 642,
      "▁Re": 643,
      "▁\\": 644,
      "▁any": 645,
      "▁if": 646,
      "▁time": 647,
      "▁over": 648,
      "▁kn": 649,
      "▁them": 650,
      "ck": 651,
      "ne": 652,
      "irst": 653,
      "ric": 654,
      "▁some": 655,
      ").": 656,
      "ph": 657,
      "ople": 658,
      "ough": 659,
      "use": 660,
      "▁than": 661,
      "▁when": 662,
      "▁bec": 663,
      "▁said": 664,
      "▁We": 665,
      "▁pre": 666,
      "▁ro": 667,
      "nder": 668,
      "ces": 669,
      "rit": 670,
      "▁like": 671,
      "▁This": 672,
      "fter": 673,
      "▁what": 674,
      "ath": 675,
      "oy": 676,
      "▁=": 677,
      "oll": 678,
      "wo": 679,
      "ons": 680,
      "ates": 681,
      "wn": 682,
      "old": 683,
      "▁into": 684,
      "▁get": 685,
      "urn": 686,
      "▁acc": 687,
      "xt": 688,
      "▁–": 689,
      "ink": 690,
      "▁Un": 691,
      "ade": 692,
      "▁people": 693,
      "▁comm": 694,
      "hed": 695,
      "clud": 696,
      "▁no": 697,
      "),": 698,
      "ual": 699,
      "▁she": 700,
      "▁just": 701,
      "tern": 702,
      "ick": 703,
      "▁Wh": 704,
      "▁am": 705,
      "rough": 706,
      "ject": 707,
      "aw": 708,
      "ious": 709,
      "ater": 710,
      "ational": 711,
      "▁first": 712,
      "com": 713,
      "iew": 714,
      "▁des": 715,
      "ont": 716,
      "▁As": 717,
      "▁<": 718,
      "we": 719,
      "iss": 720,
      "ng": 721,
      "lect": 722,
      "ft": 723,
      "▁how": 724,
      "ool": 725,
      "ood": 726,
      "▁&": 727,
      "▁ind": 728,
      "▁act": 729,
      "amp": 730,
      "▁Se": 731,
      "iff": 732,
      "▁fe": 733,
      "▁under": 734,
      "▁Com": 735,
      "ram": 736,
      "tt": 737,
      "pec": 738,
      "ities": 739,
      "▁De": 740,
      "▁bet": 741,
      "ause": 742,
      "ning": 743,
      "▁only": 744,
      "olog": 745,
      "▁prov": 746,
      "▁tra": 747,
      "li": 748,
      "▁includ": 749,
      "▁cons": 750,
      "ced": 751,
      "eth": 752,
      "▁two": 753,
      "▁may": 754,
      ");": 755,
      "▁bl": 756,
      "▁em": 757,
      "▁most": 758,
      "erm": 759,
      "▁New": 760,
      "round": 761,
      "ert": 762,
      "//": 763,
      "▁need": 764,
      "ident": 765,
      "pect": 766,
      "ise": 767,
      "▁after": 768,
      "get": 769,
      ".”": 770,
      "les": 771,
      "ful": 772,
      "▁inv": 773,
      "▁reg": 774,
      "ublic": 775,
      "rib": 776,
      "ific": 777,
      "▁years": 778,
      "▁add": 779,
      "▁through": 780,
      "ps": 781,
      "▁Pro": 782,
      "elf": 783,
      "ating": 784,
      "row": 785,
      "▁att": 786,
      "▁And": 787,
      "yst": 788,
      "oint": 789,
      "▁know": 790,
      "ock": 791,
      "ics": 792,
      "itt": 793,
      "▁him": 794,
      "▁{": 795,
      "▁could": 796,
      "cre": 797,
      "▁imp": 798,
      "ife": 799,
      "▁back": 800,
      "▁supp": 801,
      "▁stud": 802,
      "ward": 803,
      "▁where": 804,
      "▁these": 805,
      "ict": 806,
      "▁co": 807,
      "▁Ar": 808,
      "▁ass": 809,
      "▁rel": 810,
      "als": 811,
      "ments": 812,
      "hen": 813,
      "ased": 814,
      "fore": 815,
      "oth": 816,
      "▁An": 817,
      "▁pol": 818,
      "ited": 819,
      "▁see": 820,
      "▁diff": 821,
      "ener": 822,
      "day": 823,
      "▁bu": 824,
      "ork": 825,
      "▁play": 826,
      "ys": 827,
      "▁well": 828,
      "▁ra": 829,
      "▁Al": 830,
      "arch": 831,
      "▁pr": 832,
      "hip": 833,
      "▁fl": 834,
      "ily": 835,
      "▁[": 836,
      "any": 837,
      "▁ph": 838,
      "und": 839,
      "ility": 840,
      "▁rem": 841,
      "uring": 842,
      "▁every": 843,
      "cess": 844,
      "▁sub": 845,
      "ata": 846,
      "anc": 847,
      "oss": 848,
      "▁produ": 849,
      "▁serv": 850,
      "ative": 851,
      "ange": 852,
      "=\"": 853,
      "erson": 854,
      "ren": 855,
      "uch": 856,
      "io": 857,
      "ts": 858,
      "▁such": 859,
      "ivers": 860,
      "ular": 861,
      "ring": 862,
      "▁use": 863,
      "▁You": 864,
      "▁make": 865,
      "ied": 866,
      "ystem": 867,
      "ract": 868,
      "▁many": 869,
      "velop": 870,
      "▁look": 871,
      "▁did": 872,
      "▁*": 873,
      "ible": 874,
      "▁ac": 875,
      "▁col": 876,
      "▁ret": 877,
      "▁want": 878,
      "▁hel": 879,
      "ower": 880,
      "land": 881,
      "▁ent": 882,
      "▁now": 883,
      "ures": 884,
      "ty": 885,
      "▁pres": 886,
      "▁then": 887,
      "alth": 888,
      "eg": 889,
      "▁even": 890,
      "ss": 891,
      "▁set": 892,
      "▁fin": 893,
      "▁right": 894,
      "riv": 895,
      "▁way": 896,
      "ience": 897,
      "▁again": 898,
      "ull": 899,
      "▁very": 900,
      "aking": 901,
      "chool": 902,
      "▁For": 903,
      "▁But": 904,
      "▁ob": 905,
      "▁because": 906,
      "gan": 907,
      "ues": 908,
      "ices": 909,
      "▁'": 910,
      "ement": 911,
      "▁Sh": 912,
      ",”": 913,
      "au": 914,
      "other": 915,
      "its": 916,
      "▁should": 917,
      "▁def": 918,
      "iness": 919,
      "▁trans": 920,
      "con": 921,
      "▁show": 922,
      "ah": 923,
      "▁world": 924,
      "meric": 925,
      "▁eff": 926,
      "...": 927,
      "▁end": 928,
      "▁sec": 929,
      "▁own": 930,
      "ax": 931,
      "▁exper": 932,
      "ars": 933,
      "▁being": 934,
      "air": 935,
      "ting": 936,
      "▁}": 937,
      "ution": 938,
      "ash": 939,
      "up": 940,
      "ient": 941,
      "ner": 942,
      "oun": 943,
      "▁inst": 944,
      "irect": 945,
      "▁ke": 946,
      "cept": 947,
      "iel": 948,
      "▁count": 949,
      "hes": 950,
      "cy": 951,
      "▁mod": 952,
      "ank": 953,
      "ins": 954,
      "▁help": 955,
      "▁inter": 956,
      "az": 957,
      "ism": 958,
      "ug": 959,
      "▁If": 960,
      "vern": 961,
      "▁dec": 962,
      "▁art": 963,
      "ix": 964,
      "▁spec": 965,
      "formation": 966,
      "▁those": 967,
      "▁think": 968,
      "ex": 969,
      "ble": 970,
      "▁gu": 971,
      "▁long": 972,
      "pr": 973,
      "▁sur": 974,
      "▁good": 975,
      "man": 976,
      "ason": 977,
      "▁sm": 978,
      "ollow": 979,
      "view": 980,
      "▁Americ": 981,
      "ven": 982,
      "uth": 983,
      "ween": 984,
      "▁made": 985,
      "ale": 986,
      "▁call": 987,
      "▁much": 988,
      "ince": 989,
      "ives": 990,
      "▁differe": 991,
      "▁loc": 992,
      "ef": 993,
      "▁don": 994,
      "▁start": 995,
      "▁high": 996,
      "▁mem": 997,
      "usiness": 998,
      "▁fam": 999,
      "▁bel": 1000,
      "▁mon": 1001,
      "ines": 1002,
      "▁does": 1003,
      "▁requ": 1004,
      "▁develop": 1005,
      "led": 1006,
      "ek": 1007,
      "▁num": 1008,
      "▁before": 1009,
      "▁class": 1010,
      "▁Be": 1011,
      "▁char": 1012,
      "oh": 1013,
      "▁great": 1014,
      "▁between": 1015,
      "▁.": 1016,
      "oci": 1017,
      "▁down": 1018,
      "▁lead": 1019,
      "ten": 1020,
      "▁ins": 1021,
      "gram": 1022,
      "▁exp": 1023,
      "way": 1024,
      "▁‘": 1025,
      "▁Le": 1026,
      "▁Cl": 1027,
      "▁op": 1028,
      "▁Ad": 1029,
      "ather": 1030,
      "▁public": 1031,
      "▁med": 1032,
      "chn": 1033,
      "ists": 1034,
      "▁How": 1035,
      "▁read": 1036,
      "▁system": 1037,
      "▁ref": 1038,
      "▁gr": 1039,
      "▁Sc": 1040,
      "imes": 1041,
      "▁person": 1042,
      "▁Tr": 1043,
      "ouse": 1044,
      "▁form": 1045,
      "The": 1046,
      "▁ear": 1047,
      "▁here": 1048,
      "▁det": 1049,
      "der": 1050,
      "atch": 1051,
      ".,": 1052,
      "▁Is": 1053,
      "▁|": 1054,
      "ton": 1055,
      "uss": 1056,
      "alk": 1057,
      "ology": 1058,
      "▁Q": 1059,
      "▁last": 1060,
      "ave": 1061,
      "iversity": 1062,
      "▁min": 1063,
      "uc": 1064,
      "▁used": 1065,
      "ode": 1066,
      "▁find": 1067,
      "▁ed": 1068,
      "▁fil": 1069,
      "▁commun": 1070,
      "▁sign": 1071,
      "▁cur": 1072,
      "▁ser": 1073,
      "▁som": 1074,
      "ern": 1075,
      "ually": 1076,
      "▁disc": 1077,
      "▁On": 1078,
      "read": 1079,
      "ital": 1080,
      "▁ext": 1081,
      "▁Ind": 1082,
      "ters": 1083,
      "▁val": 1084,
      "▁follow": 1085,
      "▁car": 1086,
      "▁support": 1087,
      "▁life": 1088,
      "</": 1089,
      "▁take": 1090,
      "▁There": 1091,
      "▁sim": 1092,
      "▁fun": 1093,
      "ets": 1094,
      "▁rep": 1095,
      "let": 1096,
      "--": 1097,
      "ages": 1098,
      "arm": 1099,
      "▁She": 1100,
      "▁while": 1101,
      ".\"": 1102,
      "ision": 1103,
      "ize": 1104,
      "▁conf": 1105,
      "▁—": 1106,
      "ield": 1107,
      "ames": 1108,
      "vent": 1109,
      "ered": 1110,
      "▁found": 1111,
      "▁import": 1112,
      "▁cour": 1113,
      "orn": 1114,
      "els": 1115,
      "rent": 1116,
      "▁Ph": 1117,
      "roup": 1118,
      "▁point": 1119,
      "ved": 1120,
      "ute": 1121,
      "▁cre": 1122,
      "▁str": 1123,
      "▁day": 1124,
      "ness": 1125,
      "▁both": 1126,
      "▁var": 1127,
      "▁same": 1128,
      "://": 1129,
      "▁Bl": 1130,
      "▁inf": 1131,
      "▁information": 1132,
      "▁child": 1133,
      "the": 1134,
      "▁still": 1135,
      "ized": 1136,
      "line": 1137,
      "▁though": 1138,
      "ever": 1139,
      "ection": 1140,
      "▁cent": 1141,
      "ands": 1142,
      "ined": 1143,
      "▁Ex": 1144,
      "ross": 1145,
      "▁gener": 1146,
      "▁real": 1147,
      "ically": 1148,
      "▁Z": 1149,
      "ral": 1150,
      "▁say": 1151,
      "▁av": 1152,
      "▁best": 1153,
      "▁each": 1154,
      "akes": 1155,
      "cent": 1156,
      "ants": 1157,
      "▁Fr": 1158,
      "▁mark": 1159,
      "▁data": 1160,
      "▁They": 1161,
      "▁dist": 1162,
      "▁around": 1163,
      "▁different": 1164,
      "▁report": 1165,
      "▁three": 1166,
      "▁team": 1167,
      "ety": 1168,
      "▁Con": 1169,
      "ished": 1170,
      "▁book": 1171,
      "▁cor": 1172,
      "▁business": 1173,
      "▁br": 1174,
      "aj": 1175,
      "▁provid": 1176,
      "▁during": 1177,
      "ann": 1178,
      "▁care": 1179,
      "illion": 1180,
      "ional": 1181,
      "ier": 1182,
      "ature": 1183,
      "▁el": 1184,
      "erest": 1185,
      "oot": 1186,
      "ruct": 1187,
      "▁So": 1188,
      "ural": 1189,
      "▁result": 1190,
      "gy": 1191,
      "▁gl": 1192,
      "ER": 1193,
      "vernment": 1194,
      "▁fact": 1195,
      "▁really": 1196,
      "bs": 1197,
      "▁contin": 1198,
      "▁return": 1199,
      "▁Sp": 1200,
      "▁appro": 1201,
      "▁Comm": 1202,
      "▁che": 1203,
      "▁going": 1204,
      "▁lar": 1205,
      "▁Pl": 1206,
      "bers": 1207,
      "ox": 1208,
      "▁partic": 1209,
      "ired": 1210,
      "inal": 1211,
      "▁/": 1212,
      "ared": 1213,
      "ense": 1214,
      "▁All": 1215,
      "▁resp": 1216,
      "▁What": 1217,
      "ik": 1218,
      "ving": 1219,
      "raph": 1220,
      "▁program": 1221,
      "▁Mar": 1222,
      "ger": 1223,
      "▁including": 1224,
      "▁vis": 1225,
      "▁dep": 1226,
      "▁ty": 1227,
      "▁home": 1228,
      "ien": 1229,
      "▁law": 1230,
      "ody": 1231,
      "▁iss": 1232,
      "▁school": 1233,
      "att": 1234,
      "▁del": 1235,
      "ec": 1236,
      "ina": 1237,
      "ple": 1238,
      "▁sl": 1239,
      "▁Col": 1240,
      "▁writ": 1241,
      "mber": 1242,
      "ms": 1243,
      "▁against": 1244,
      "▁place": 1245,
      "▁University": 1246,
      "▁Res": 1247,
      "▁US": 1248,
      "▁process": 1249,
      "▁direct": 1250,
      "▁design": 1251,
      "self": 1252,
      "▁pat": 1253,
      "▁post": 1254,
      "omen": 1255,
      "oad": 1256,
      "▁#": 1257,
      "ering": 1258,
      "ration": 1259,
      "rist": 1260,
      "▁run": 1261,
      "▁To": 1262,
      "▁expl": 1263,
      "usic": 1264,
      "▁Te": 1265,
      "▁sol": 1266,
      "ged": 1267,
      "ially": 1268,
      "▁stat": 1269,
      "▁state": 1270,
      "▁est": 1271,
      "▁techn": 1272,
      "uro": 1273,
      "ploy": 1274,
      "▁health": 1275,
      "ym": 1276,
      "▁number": 1277,
      "▁adv": 1278,
      "▁open": 1279,
      "▁interest": 1280,
      "▁const": 1281,
      "▁pur": 1282,
      "▁cle": 1283,
      "▁htt": 1284,
      "▁hist": 1285,
      "▁pass": 1286,
      "ways": 1287,
      "▁happ": 1288,
      "sc": 1289,
      "ator": 1290,
      "ris": 1291,
      "ron": 1292,
      "▁prof": 1293,
      "riend": 1294,
      "▁second": 1295,
      "ves": 1296,
      "▁build": 1297,
      "▁organ": 1298,
      "be": 1299,
      "▁leg": 1300,
      "▁prot": 1301,
      "nce": 1302,
      "ission": 1303,
      "arn": 1304,
      "ases": 1305,
      "▁invest": 1306,
      "ember": 1307,
      "▁mov": 1308,
      "▁That": 1309,
      "ocial": 1310,
      "▁list": 1311,
      "▁poss": 1312,
      "▁perform": 1313,
      "▁since": 1314,
      "▁At": 1315,
      "iving": 1316,
      "uman": 1317,
      "▁too": 1318,
      "uthor": 1319,
      "to": 1320,
      "▁effect": 1321,
      "▁must": 1322,
      "app": 1323,
      "ption": 1324,
      "less": 1325,
      "▁main": 1326,
      "son": 1327,
      "outh": 1328,
      "▁says": 1329,
      "▁month": 1330,
      "▁Or": 1331,
      "ohn": 1332,
      "▁oper": 1333,
      "ining": 1334,
      "▁project": 1335,
      "▁inc": 1336,
      "▁opp": 1337,
      "▁incre": 1338,
      "orth": 1339,
      "▁using": 1340,
      "▁la": 1341,
      "ittle": 1342,
      "▁i": 1343,
      "▁game": 1344,
      "ccess": 1345,
      "▁few": 1346,
      "_{": 1347,
      "▁another": 1348,
      "▁lot": 1349,
      "ething": 1350,
      "gg": 1351,
      "▁rest": 1352,
      "\">": 1353,
      "eng": 1354,
      "conom": 1355,
      "ality": 1356,
      "▁hand": 1357,
      "co": 1358,
      "rol": 1359,
      "▁power": 1360,
      "ote": 1361,
      "lease": 1362,
      "▁May": 1363,
      "▁rese": 1364,
      "osed": 1365,
      "ury": 1366,
      "lement": 1367,
      "▁top": 1368,
      "eb": 1369,
      "oard": 1370,
      "▁head": 1371,
      "▁case": 1372,
      "ertain": 1373,
      "ON": 1374,
      "min": 1375,
      "▁dem": 1376,
      "stand": 1377,
      "St": 1378,
      "thing": 1379,
      "▁Jan": 1380,
      "▁quest": 1381,
      "▁name": 1382,
      "▁rece": 1383,
      "▁company": 1384,
      "ley": 1385,
      "▁pop": 1386,
      "▁family": 1387,
      "▁tri": 1388,
      "IN": 1389,
      "▁Go": 1390,
      "▁product": 1391,
      "ump": 1392,
      "▁ann": 1393,
      "▁allow": 1394,
      "ource": 1395,
      "med": 1396,
      "▁test": 1397,
      "▁No": 1398,
      "pro": 1399,
      "▁sk": 1400,
      "▁without": 1401,
      "par": 1402,
      "▁Cent": 1403,
      "ately": 1404,
      "yn": 1405,
      "ird": 1406,
      "▁things": 1407,
      "▁When": 1408,
      "▁week": 1409,
      "▁par": 1410,
      "▁pos": 1411,
      "▁come": 1412,
      "▁plan": 1413,
      "que": 1414,
      "▁John": 1415,
      "ling": 1416,
      "ior": 1417,
      "ization": 1418,
      "▁something": 1419,
      "▁With": 1420,
      "▁big": 1421,
      "▁never": 1422,
      "▁next": 1423,
      "por": 1424,
      ",\"": 1425,
      "lection": 1426,
      "ternational": 1427,
      "ery": 1428,
      "▁put": 1429,
      "▁bro": 1430,
      "▁di": 1431,
      "err": 1432,
      "▁By": 1433,
      "▁current": 1434,
      "▁small": 1435,
      "ised": 1436,
      "une": 1437,
      "ott": 1438,
      "▁belie": 1439,
      "▁Am": 1440,
      "ailable": 1441,
      "ified": 1442,
      "▁Co": 1443,
      "▁government": 1444,
      "▁record": 1445,
      "▁Eng": 1446,
      "ope": 1447,
      "▁ide": 1448,
      "ains": 1449,
      "enn": 1450,
      "▁ca": 1451,
      "▁Man": 1452,
      "▁spe": 1453,
      "▁American": 1454,
      "▁level": 1455,
      "▁Can": 1456,
      "ivid": 1457,
      "▁stand": 1458,
      "ubl": 1459,
      "▁old": 1460,
      "of": 1461,
      "ober": 1462,
      "▁Rep": 1463,
      "ived": 1464,
      "▁turn": 1465,
      "▁equ": 1466,
      "▁might": 1467,
      "▁feel": 1468,
      "reen": 1469,
      "▁stre": 1470,
      "▁seem": 1471,
      "icle": 1472,
      "iron": 1473,
      "▁met": 1474,
      "vious": 1475,
      "▁manag": 1476,
      "rem": 1477,
      "▁cap": 1478,
      "itions": 1479,
      "▁important": 1480,
      "▁better": 1481,
      "iven": 1482,
      "▁always": 1483,
      "▁fr": 1484,
      "▁Car": 1485,
      "ories": 1486,
      "aim": 1487,
      "ries": 1488,
      "▁try": 1489,
      "here": 1490,
      "▁four": 1491,
      "▁offic": 1492,
      "ium": 1493,
      "▁United": 1494,
      "arent": 1495,
      "▁little": 1496,
      "▁country": 1497,
      "ustom": 1498,
      "▁proble": 1499,
      "▁present": 1500,
      "▁within": 1501,
      "▁Christ": 1502,
      "▁mat": 1503,
      "sp": 1504,
      "▁term": 1505,
      "▁got": 1506,
      "ES": 1507,
      "▁beh": 1508,
      "ney": 1509,
      "ured": 1510,
      "▁eas": 1511,
      "ency": 1512,
      "AR": 1513,
      "ample": 1514,
      "AT": 1515,
      "▁Wor": 1516,
      "▁fac": 1517,
      "▁grow": 1518,
      "▁mar": 1519,
      "ability": 1520,
      "▁group": 1521,
      "ument": 1522,
      "▁aff": 1523,
      "gin": 1524,
      "sh": 1525,
      "ider": 1526,
      "ention": 1527,
      "▁story": 1528,
      "▁keep": 1529,
      "▁elect": 1530,
      "▁eng": 1531,
      "▁market": 1532,
      "▁prom": 1533,
      "▁pay": 1534,
      "▁less": 1535,
      "ively": 1536,
      "▁view": 1537,
      "ify": 1538,
      "▁let": 1539,
      "▁Pol": 1540,
      "ajor": 1541,
      "▁ask": 1542,
      "▁hard": 1543,
      "▁cr": 1544,
      "▁love": 1545,
      "ination": 1546,
      "▁change": 1547,
      "inc": 1548,
      "ably": 1549,
      "▁sing": 1550,
      "▁available": 1551,
      "ained": 1552,
      "ently": 1553,
      "▁Ab": 1554,
      "▁win": 1555,
      "▁polit": 1556,
      "▁Med": 1557,
      "▁local": 1558,
      "▁Su": 1559,
      "▁experience": 1560,
      "▁order": 1561,
      "atic": 1562,
      "lex": 1563,
      "ush": 1564,
      "▁bre": 1565,
      "▁chang": 1566,
      "ording": 1567,
      "▁children": 1568,
      "ortun": 1569,
      "()": 1570,
      "br": 1571,
      "▁et": 1572,
      "▁friend": 1573,
      "ats": 1574,
      "ients": 1575,
      "▁Euro": 1576,
      "▁million": 1577,
      "oney": 1578,
      "▁water": 1579,
      "ians": 1580,
      "work": 1581,
      "▁es": 1582,
      "til": 1583,
      "▁cost": 1584,
      "▁music": 1585,
      "▁free": 1586,
      "▁//": 1587,
      "▁full": 1588,
      "▁Pres": 1589,
      "by": 1590,
      "▁One": 1591,
      "over": 1592,
      "▁sit": 1593,
      "ights": 1594,
      "OR": 1595,
      "▁non": 1596,
      "▁working": 1597,
      "put": 1598,
      "ential": 1599,
      "In": 1600,
      "▁access": 1601,
      "ref": 1602,
      "augh": 1603,
      "▁Pr": 1604,
      "ourn": 1605,
      "▁charact": 1606,
      "▁service": 1607,
      "▁days": 1608,
      "▁community": 1609,
      "▁proper": 1610,
      "ene": 1611,
      "ma": 1612,
      "ware": 1613,
      "▁bas": 1614,
      "org": 1615,
      "icy": 1616,
      "▁expect": 1617,
      "ane": 1618,
      "▁social": 1619,
      "ead": 1620,
      "▁En": 1621,
      "acy": 1622,
      "iver": 1623,
      "▁line": 1624,
      "▁meet": 1625,
      "AN": 1626,
      "▁Fl": 1627,
      "▁able": 1628,
      "▁employ": 1629,
      "uture": 1630,
      "▁left": 1631,
      "▁Br": 1632,
      "▁success": 1633,
      "ister": 1634,
      "▁activ": 1635,
      "▁Ass": 1636,
      "ee": 1637,
      "▁indust": 1638,
      "▁research": 1639,
      "ulation": 1640,
      "▁fund": 1641,
      "▁pract": 1642,
      "ising": 1643,
      "▁App": 1644,
      "oor": 1645,
      "▁past": 1646,
      "rict": 1647,
      "▁+": 1648,
      "viron": 1649,
      "osp": 1650,
      "ocus": 1651,
      "▁move": 1652,
      "▁women": 1653,
      "ours": 1654,
      "oid": 1655,
      "aster": 1656,
      "▁near": 1657,
      "irc": 1658,
      "ai": 1659,
      "▁Ne": 1660,
      "ograph": 1661,
      "▁@": 1662,
      "▁orig": 1663,
      "▁students": 1664,
      "urs": 1665,
      "▁human": 1666,
      "▁addition": 1667,
      "**": 1668,
      "urity": 1669,
      "duct": 1670,
      "for": 1671,
      "ended": 1672,
      "▁provide": 1673,
      "▁Im": 1674,
      "▁author": 1675,
      "▁called": 1676,
      "▁mil": 1677,
      "ethod": 1678,
      "iting": 1679,
      "uck": 1680,
      "▁cond": 1681,
      "ards": 1682,
      "{\\": 1683,
      "▁:": 1684,
      "▁York": 1685,
      "▁Ed": 1686,
      "▁econom": 1687,
      "▁why": 1688,
      "pos": 1689,
      "▁State": 1690,
      "ateg": 1691,
      "▁Gu": 1692,
      "▁word": 1693,
      "▁X": 1694,
      "▁fore": 1695,
      "▁priv": 1696,
      "▁$\\": 1697,
      "▁area": 1698,
      "side": 1699,
      "▁occ": 1700,
      "eter": 1701,
      "▁event": 1702,
      "▁today": 1703,
      "▁Gr": 1704,
      "▁services": 1705,
      "▁film": 1706,
      "idd": 1707,
      "ending": 1708,
      "▁major": 1709,
      "ID": 1710,
      "cer": 1711,
      "▁Europe": 1712,
      "veral": 1713,
      "▁making": 1714,
      "▁World": 1715,
      "▁National": 1716,
      "▁function": 1717,
      "▁members": 1718,
      "▁dev": 1719,
      "▁z": 1720,
      "ances": 1721,
      "resent": 1722,
      "▁away": 1723,
      "aff": 1724,
      "▁My": 1725,
      "▁anal": 1726,
      "▁Inst": 1727,
      "▁give": 1728,
      "▁desc": 1729,
      "erence": 1730,
      "alf": 1731,
      "▁until": 1732,
      "EN": 1733,
      "▁mean": 1734,
      "val": 1735,
      "ready": 1736,
      "af": 1737,
      "▁understand": 1738,
      "▁across": 1739,
      "aut": 1740,
      "▁Min": 1741,
      "\",": 1742,
      "▁based": 1743,
      "uary": 1744,
      "▁war": 1745,
      "obal": 1746,
      "rop": 1747,
      "lish": 1748,
      "▁dra": 1749,
      "ales": 1750,
      "▁along": 1751,
      "▁value": 1752,
      "▁ident": 1753,
      "artment": 1754,
      "▁kind": 1755,
      "itor": 1756,
      "▁lik": 1757,
      "▁city": 1758,
      "wards": 1759,
      "▁far": 1760,
      "▁After": 1761,
      "ots": 1762,
      "▁custom": 1763,
      "▁applic": 1764,
      "▁young": 1765,
      "ividual": 1766,
      "▁didn": 1767,
      "eral": 1768,
      "▁States": 1769,
      "▁camp": 1770,
      "math": 1771,
      "▁conn": 1772,
      "▁following": 1773,
      "▁Ju": 1774,
      "▁become": 1775,
      "▁study": 1776,
      "▁course": 1777,
      "urther": 1778,
      "▁ben": 1779,
      "▁history": 1780,
      "▁cho": 1781,
      "▁Oct": 1782,
      "itive": 1783,
      "▁job": 1784,
      "▁educ": 1785,
      "vironment": 1786,
      "▁special": 1787,
      "go": 1788,
      "▁lim": 1789,
      "▁development": 1790,
      "AS": 1791,
      "ike": 1792,
      "▁Cont": 1793,
      "▁Me": 1794,
      "▁Af": 1795,
      "▁sure": 1796,
      "idence": 1797,
      "▁season": 1798,
      "▁cult": 1799,
      "▁thing": 1800,
      "▁Act": 1801,
      "▁known": 1802,
      "iod": 1803,
      "▁Ge": 1804,
      "▁impro": 1805,
      "yl": 1806,
      "oman": 1807,
      "gether": 1808,
      "▁mult": 1809,
      "▁together": 1810,
      "▁Apr": 1811,
      "▁often": 1812,
      "▁However": 1813,
      "▁already": 1814,
      "ream": 1815,
      "ffic": 1816,
      "▁Mc": 1817,
      "imate": 1818,
      "sel": 1819,
      "▁trad": 1820,
      "▁pa": 1821,
      "▁times": 1822,
      "ole": 1823,
      "omm": 1824,
      "ray": 1825,
      "▁saf": 1826,
      "▁came": 1827,
      "▁clear": 1828,
      "▁_": 1829,
      "▁control": 1830,
      "▁tell": 1831,
      "▁Em": 1832,
      "▁having": 1833,
      "▁least": 1834,
      "▁creat": 1835,
      "▁Will": 1836,
      "▁Bro": 1837,
      "▁aut": 1838,
      "▁men": 1839,
      "leg": 1840,
      "ither": 1841,
      "▁invol": 1842,
      "▁exc": 1843,
      "iol": 1844,
      "ored": 1845,
      "▁short": 1846,
      "▁Count": 1847,
      "▁future": 1848,
      "▁phot": 1849,
      "▁particular": 1850,
      "▁focus": 1851,
      "▁several": 1852,
      "▁later": 1853,
      "rap": 1854,
      "▁early": 1855,
      "lev": 1856,
      "ows": 1857,
      "ued": 1858,
      "▁given": 1859,
      "▁Cal": 1860,
      "▁City": 1861,
      "right": 1862,
      "▁Ag": 1863,
      "▁Mr": 1864,
      "ung": 1865,
      "▁Part": 1866,
      "▁profess": 1867,
      "▁Do": 1868,
      "▁individual": 1869,
      "aterial": 1870,
      "▁ever": 1871,
      "▁These": 1872,
      "▁Aug": 1873,
      "▁certain": 1874,
      "▁March": 1875,
      "▁School": 1876,
      "elt": 1877,
      "▁include": 1878,
      "▁talk": 1879,
      "aps": 1880,
      "▁example": 1881,
      "▁opt": 1882,
      "ideo": 1883,
      "ched": 1884,
      "▁net": 1885,
      "▁large": 1886,
      "▁Aust": 1887,
      "▁claim": 1888,
      "▁pot": 1889,
      "tr": 1890,
      "aken": 1891,
      "▁others": 1892,
      "▁ant": 1893,
      "▁conc": 1894,
      "ony": 1895,
      "ww": 1896,
      "▁South": 1897,
      "che": 1898,
      "de": 1899,
      "▁air": 1900,
      "▁means": 1901,
      "▁possible": 1902,
      "▁treat": 1903,
      "▁ve": 1904,
      "▁hold": 1905,
      "not": 1906,
      "▁Har": 1907,
      "▁self": 1908,
      "ources": 1909,
      "▁January": 1910,
      "ected": 1911,
      "....": 1912,
      "▁money": 1913,
      "▁wr": 1914,
      "▁field": 1915,
      "▁among": 1916,
      "ones": 1917,
      "▁Art": 1918,
      "AL": 1919,
      "www": 1920,
      "IS": 1921,
      "▁sw": 1922,
      "ides": 1923,
      "urch": 1924,
      "ball": 1925,
      "roll": 1926,
      "▁vers": 1927,
      "ribut": 1928,
      "iam": 1929,
      "abor": 1930,
      "lege": 1931,
      "ills": 1932,
      "▁account": 1933,
      "▁series": 1934,
      "ask": 1935,
      "cing": 1936,
      "▁</": 1937,
      "▁--": 1938,
      "aring": 1939,
      "▁Dep": 1940,
      "▁feat": 1941,
      "most": 1942,
      "▁enough": 1943,
      "▁ris": 1944,
      "yle": 1945,
      "ique": 1946,
      "▁Sept": 1947,
      "▁took": 1948,
      "▁Not": 1949,
      "▁Comp": 1950,
      "▁June": 1951,
      "rew": 1952,
      "ipp": 1953,
      "▁light": 1954,
      "ted": 1955,
      "▁tem": 1956,
      "▁April": 1957,
      "▁War": 1958,
      "▁done": 1959,
      "irl": 1960,
      "▁type": 1961,
      "▁review": 1962,
      "ilar": 1963,
      "set": 1964,
      "▁Gl": 1965,
      "me": 1966,
      "▁President": 1967,
      "▁side": 1968,
      "ogn": 1969,
      "ript": 1970,
      "▁July": 1971,
      "▁fre": 1972,
      "▁happen": 1973,
      "ada": 1974,
      "▁North": 1975,
      "▁His": 1976,
      "▁learn": 1977,
      "▁house": 1978,
      "ape": 1979,
      "▁discuss": 1980,
      "▁told": 1981,
      "ids": 1982,
      "▁live": 1983,
      "▁reason": 1984,
      "▁Par": 1985,
      "▁Che": 1986,
      "▁crit": 1987,
      "▁makes": 1988,
      "▁hig": 1989,
      "back": 1990,
      "▁thought": 1991,
      "▁News": 1992,
      "▁tax": 1993,
      "▁seen": 1994,
      "▁Tra": 1995,
      "▁strong": 1996,
      "▁webs": 1997,
      "IC": 1998,
      "▁vari": 1999,
      "▁works": 2000,
      "▁opportun": 2001,
      "ails": 2002,
      "ership": 2003,
      "▁Our": 2004,
      "my": 2005,
      "▁vol": 2006,
      "▁Feb": 2007,
      "▁CO": 2008,
      "▁publ": 2009,
      "▁benef": 2010,
      "▁https": 2011,
      "ster": 2012,
      "▁food": 2013,
      "▁Dr": 2014,
      "▁deb": 2015,
      "▁deal": 2016,
      "▁mom": 2017,
      "▁Dav": 2018,
      "▁media": 2019,
      "▁five": 2020,
      "IT": 2021,
      "▁Dis": 2022,
      "▁doc": 2023,
      "▁appear": 2024,
      "▁looking": 2025,
      "verage": 2026,
      "▁night": 2027,
      "▁news": 2028,
      "▁period": 2029,
      "ournal": 2030,
      "▁Cor": 2031,
      "ental": 2032,
      "▁Reg": 2033,
      "Th": 2034,
      "▁doing": 2035,
      "▁whether": 2036,
      "uff": 2037,
      "joy": 2038,
      "▁sum": 2039,
      "cember": 2040,
      "▁port": 2041,
      "▁site": 2042,
      "▁doesn": 2043,
      "▁Bar": 2044,
      "▁Des": 2045,
      "anies": 2046,
      "ler": 2047,
      "We": 2048,
      "▁tot": 2049,
      "ators": 2050,
      "▁meas": 2051,
      "▁represent": 2052,
      "▁Qu": 2053,
      "▁key": 2054,
      "sw": 2055,
      "▁once": 2056,
      "ief": 2057,
      "▁God": 2058,
      "book": 2059,
      "▁redu": 2060,
      "▁question": 2061,
      "ovember": 2062,
      "▁El": 2063,
      "▁land": 2064,
      "angu": 2065,
      "▁relations": 2066,
      "▁percent": 2067,
      "▁chall": 2068,
      "▁death": 2069,
      "▁went": 2070,
      "reg": 2071,
      "▁won": 2072,
      "▁Serv": 2073,
      "▁signific": 2074,
      "▁compet": 2075,
      "cil": 2076,
      "▁More": 2077,
      "▁stop": 2078,
      "▁low": 2079,
      "ison": 2080,
      "play": 2081,
      "▁true": 2082,
      "▁Per": 2083,
      "▁jo": 2084,
      "▁personal": 2085,
      "▁tre": 2086,
      "essage": 2087,
      "hers": 2088,
      "▁dri": 2089,
      "▁Brit": 2090,
      "▁actually": 2091,
      "ED": 2092,
      "▁comb": 2093,
      "lu": 2094,
      "▁Pe": 2095,
      "▁method": 2096,
      "▁material": 2097,
      "gr": 2098,
      "olution": 2099,
      "▁cou": 2100,
      "▁months": 2101,
      "▁industry": 2102,
      "▁room": 2103,
      "illed": 2104,
      "▁online": 2105,
      "ges": 2106,
      "ilities": 2107,
      "▁body": 2108,
      "ival": 2109,
      "▁init": 2110,
      "▁October": 2111,
      "▁due": 2112,
      "minist": 2113,
      "rodu": 2114,
      "▁December": 2115,
      "though": 2116,
      "aces": 2117,
      "▁bit": 2118,
      "ele": 2119,
      "▁require": 2120,
      "▁Stud": 2121,
      "▁pain": 2122,
      "▁September": 2123,
      "ches": 2124,
      "▁ener": 2125,
      "agn": 2126,
      "▁create": 2127,
      "▁else": 2128,
      "ml": 2129,
      "ibility": 2130,
      "bl": 2131,
      "ret": 2132,
      "gest": 2133,
      "▁further": 2134,
      "▁pri": 2135,
      "▁started": 2136,
      "▁address": 2137,
      "▁space": 2138,
      "▁America": 2139,
      "used": 2140,
      "itted": 2141,
      "ancial": 2142,
      "▁November": 2143,
      "▁sound": 2144,
      "▁Her": 2145,
      "▁enc": 2146,
      "arget": 2147,
      "▁yet": 2148,
      "It": 2149,
      "oph": 2150,
      "):": 2151,
      "▁August": 2152,
      "fer": 2153,
      "now": 2154,
      "ule": 2155,
      "▁character": 2156,
      "gress": 2157,
      "▁respons": 2158,
      "ports": 2159,
      "▁Pa": 2160,
      "uation": 2161,
      "▁Russ": 2162,
      "wh": 2163,
      "▁comes": 2164,
      "▁problem": 2165,
      "▁bring": 2166,
      "▁needs": 2167,
      "▁super": 2168,
      "ification": 2169,
      "itle": 2170,
      "iter": 2171,
      "▁Afric": 2172,
      "▁role": 2173,
      "▁press": 2174,
      "▁Just": 2175,
      "▁national": 2176,
      "▁final": 2177,
      "▁respect": 2178,
      "irm": 2179,
      "▁announ": 2180,
      "▁West": 2181,
      "equ": 2182,
      "▁Sm": 2183,
      "▁http": 2184,
      "▁song": 2185,
      "▁single": 2186,
      "▁mind": 2187,
      "▁prob": 2188,
      "▁Acc": 2189,
      "▁cell": 2190,
      "▁While": 2191,
      "▁Health": 2192,
      "ham": 2193,
      "aining": 2194,
      "ociety": 2195,
      "ried": 2196,
      "▁Ke": 2197,
      "▁environment": 2198,
      "▁visit": 2199,
      "▁Cour": 2200,
      "▁building": 2201,
      "▁typ": 2202,
      "▁exist": 2203,
      "amb": 2204,
      "ging": 2205,
      "▁object": 2206,
      "ault": 2207,
      "ples": 2208,
      "hing": 2209,
      "▁enjoy": 2210,
      "▁House": 2211,
      "earch": 2212,
      "▁bo": 2213,
      "▁fav": 2214,
      "text": 2215,
      "▁lo": 2216,
      "ilt": 2217,
      "▁begin": 2218,
      "▁results": 2219,
      "▁complet": 2220,
      "▁aud": 2221,
      "▁issues": 2222,
      "▁From": 2223,
      "▁Post": 2224,
      "cret": 2225,
      "AC": 2226,
      "ests": 2227,
      "▁model": 2228,
      "utes": 2229,
      "▁political": 2230,
      "▁above": 2231,
      "oon": 2232,
      "selves": 2233,
      "umb": 2234,
      "▁companies": 2235,
      "▁ago": 2236,
      "str": 2237,
      "----": 2238,
      "ift": 2239,
      "ino": 2240,
      "▁getting": 2241,
      "▁Char": 2242,
      "▁La": 2243,
      "na": 2244,
      "unch": 2245,
      "▁third": 2246,
      "▁action": 2247,
      "▁dr": 2248,
      "▁Mark": 2249,
      "vert": 2250,
      "ibr": 2251,
      "head": 2252,
      "▁age": 2253,
      "▁,": 2254,
      "year": 2255,
      "▁sent": 2256,
      "EC": 2257,
      "rain": 2258,
      "▁significant": 2259,
      "ze": 2260,
      "▁Now": 2261,
      "▁TH": 2262,
      "fact": 2263,
      "ana": 2264,
      "clus": 2265,
      "▁ey": 2266,
      "empt": 2267,
      "▁believe": 2268,
      "ama": 2269,
      "▁previous": 2270,
      "pecially": 2271,
      "opy": 2272,
      "▁website": 2273,
      "utions": 2274,
      "lation": 2275,
      "',": 2276,
      "▁technology": 2277,
      "ruction": 2278,
      "oe": 2279,
      "▁Int": 2280,
      "▁estab": 2281,
      "asing": 2282,
      "▁common": 2283,
      "▁arg": 2284,
      "▁mot": 2285,
      "▁rights": 2286,
      "onse": 2287,
      "▁Don": 2288,
      "▁taken": 2289,
      "▁shall": 2290,
      "▁Law": 2291,
      "▁face": 2292,
      "▁determ": 2293,
      "▁energy": 2294,
      "▁viol": 2295,
      "▁impact": 2296,
      "error": 2297,
      "▁share": 2298,
      "▁sugg": 2299,
      "▁Austral": 2300,
      "dd": 2301,
      "ington": 2302,
      "anks": 2303,
      "ume": 2304,
      "▁effort": 2305,
      "▁former": 2306,
      "▁offer": 2307,
      "istic": 2308,
      "▁private": 2309,
      "▁step": 2310,
      "▁half": 2311,
      "▁County": 2312,
      "ST": 2313,
      "▁whole": 2314,
      "rac": 2315,
      "▁Sch": 2316,
      "epend": 2317,
      "hib": 2318,
      "▁describ": 2319,
      "▁fail": 2320,
      "ules": 2321,
      "atural": 2322,
      "▁phys": 2323,
      "▁Mich": 2324,
      "▁subject": 2325,
      "▁parent": 2326,
      "rug": 2327,
      "time": 2328,
      "lete": 2329,
      "▁six": 2330,
      "▁products": 2331,
      "▁according": 2332,
      "abel": 2333,
      "ological": 2334,
      "▁compl": 2335,
      "▁Fin": 2336,
      "ruary": 2337,
      "}}": 2338,
      "▁particip": 2339,
      "▁associ": 2340,
      "ht": 2341,
      "▁court": 2342,
      "▁general": 2343,
      "▁video": 2344,
      "▁Pre": 2345,
      "▁consider": 2346,
      "ouncil": 2347,
      "chie": 2348,
      "▁content": 2349,
      "▁official": 2350,
      "ysis": 2351,
      "▁tw": 2352,
      "ades": 2353,
      "▁ens": 2354,
      "▁International": 2355,
      "▁almost": 2356,
      "▁Germ": 2357,
      "ext": 2358,
      "▁UK": 2359,
      "▁mor": 2360,
      "▁struct": 2361,
      "▁gen": 2362,
      "▁fall": 2363,
      "itte": 2364,
      "fect": 2365,
      "▁attack": 2366,
      "▁heart": 2367,
      "▁lat": 2368,
      "▁Trump": 2369,
      "ression": 2370,
      "▁hy": 2371,
      "hel": 2372,
      "▁Sec": 2373,
      "▁games": 2374,
      "▁quality": 2375,
      "irt": 2376,
      "atory": 2377,
      "▁>": 2378,
      "itary": 2379,
      "▁position": 2380,
      "▁ep": 2381,
      "iction": 2382,
      "face": 2383,
      "▁rad": 2384,
      "▁similar": 2385,
      "▁either": 2386,
      "ondon": 2387,
      "part": 2388,
      "▁prop": 2389,
      "^{": 2390,
      "▁bar": 2391,
      "▁performance": 2392,
      "iday": 2393,
      "adem": 2394,
      "ederal": 2395,
      "▁issue": 2396,
      "▁check": 2397,
      "▁Some": 2398,
      "▁amount": 2399,
      "elling": 2400,
      "▁wind": 2401,
      "ends": 2402,
      "▁wa": 2403,
      "ald": 2404,
      "▁held": 2405,
      "load": 2406,
      "▁entire": 2407,
      "▁member": 2408,
      "▁coll": 2409,
      "▁Of": 2410,
      "▁dom": 2411,
      "▁agre": 2412,
      "▁February": 2413,
      "▁Center": 2414,
      "cial": 2415,
      "RE": 2416,
      "fully": 2417,
      "▁taking": 2418,
      "icult": 2419,
      "cal": 2420,
      "▁rather": 2421,
      "iet": 2422,
      "sy": 2423,
      "▁international": 2424,
      "▁policy": 2425,
      "▁break": 2426,
      "ledge": 2427,
      "▁China": 2428,
      "uk": 2429,
      "▁Direct": 2430,
      "apt": 2431,
      "▁Park": 2432,
      "▁miss": 2433,
      "cast": 2434,
      "▁recogn": 2435,
      "ecut": 2436,
      "▁dou": 2437,
      "hern": 2438,
      "▁friends": 2439,
      "▁hours": 2440,
      "▁hom": 2441,
      "▁quick": 2442,
      "▁cut": 2443,
      "▁original": 2444,
      "->": 2445,
      "▁collect": 2446,
      "▁necess": 2447,
      "ication": 2448,
      "▁Sw": 2449,
      "▁cal": 2450,
      "▁continue": 2451,
      "▁likely": 2452,
      "ille": 2453,
      "ament": 2454,
      "▁shows": 2455,
      "era": 2456,
      "ided": 2457,
      "key": 2458,
      "raft": 2459,
      "▁page": 2460,
      "▁countries": 2461,
      "▁range": 2462,
      "▁text": 2463,
      "▁Pat": 2464,
      "▁events": 2465,
      "▁idea": 2466,
      "▁provided": 2467,
      "▁close": 2468,
      "ception": 2469,
      "▁various": 2470,
      "icro": 2471,
      "▁buy": 2472,
      "▁contact": 2473,
      "▁relationship": 2474,
      "(\"": 2475,
      "new": 2476,
      "add": 2477,
      "hold": 2478,
      "▁cases": 2479,
      "▁however": 2480,
      "▁foot": 2481,
      "▁recent": 2482,
      "▁risk": 2483,
      "▁global": 2484,
      "▁host": 2485,
      "▁sex": 2486,
      "ites": 2487,
      "leased": 2488,
      "▁education": 2489,
      "▁black": 2490,
      "ender": 2491,
      "▁anything": 2492,
      "▁High": 2493,
      "ari": 2494,
      "▁front": 2495,
      "▁hope": 2496,
      "off": 2497,
      "sec": 2498,
      "▁Mon": 2499,
      "▁everything": 2500,
      "ivil": 2501,
      "ires": 2502,
      "▁watch": 2503,
      "itch": 2504,
      "▁especially": 2505,
      "ees": 2506,
      "▁King": 2507,
      "alt": 2508,
      "aign": 2509,
      "▁Ste": 2510,
      "▁became": 2511,
      "▁abs": 2512,
      "igital": 2513,
      "▁Off": 2514,
      "ype": 2515,
      "▁London": 2516,
      "▁areas": 2517,
      "▁someone": 2518,
      "▁below": 2519,
      "::": 2520,
      "▁beaut": 2521,
      "atur": 2522,
      "▁repl": 2523,
      "ci": 2524,
      "▁Court": 2525,
      "anguage": 2526,
      "▁intern": 2527,
      "room": 2528,
      "▁concern": 2529,
      "amed": 2530,
      "▁total": 2531,
      "eal": 2532,
      "__": 2533,
      "▁behind": 2534,
      "▁received": 2535,
      "▁contract": 2536,
      "▁investig": 2537,
      "bum": 2538,
      "▁imm": 2539,
      "▁party": 2540,
      "▁security": 2541,
      "();": 2542,
      "▁article": 2543,
      "AM": 2544,
      "▁trying": 2545,
      "igure": 2546,
      "come": 2547,
      "}$": 2548,
      "su": 2549,
      "▁Dem": 2550,
      ".)": 2551,
      "▁patients": 2552,
      "▁Department": 2553,
      "mit": 2554,
      "▁walk": 2555,
      "iddle": 2556,
      "▁travel": 2557,
      "Ch": 2558,
      "nov": 2559,
      "▁First": 2560,
      "▁Ang": 2561,
      "cle": 2562,
      "ceed": 2563,
      "▁clos": 2564,
      "roups": 2565,
      "iences": 2566,
      "▁circ": 2567,
      "▁famil": 2568,
      "ogle": 2569,
      "▁required": 2570,
      "▁dest": 2571,
      "aching": 2572,
      "ensive": 2573,
      "▁x": 2574,
      "icles": 2575,
      "▁pie": 2576,
      "▁points": 2577,
      "▁Sen": 2578,
      "▁accept": 2579,
      "▁asked": 2580,
      "▁coming": 2581,
      "▁David": 2582,
      "▁obs": 2583,
      "▁exam": 2584,
      "ops": 2585,
      "▁ground": 2586,
      "▁Ir": 2587,
      "▁cred": 2588,
      "▁management": 2589,
      "ude": 2590,
      "▁mass": 2591,
      "▁hon": 2592,
      "▁Gener": 2593,
      "../": 2594,
      "iple": 2595,
      "▁regard": 2596,
      "▁achie": 2597,
      "▁wanted": 2598,
      "▁Cons": 2599,
      "▁India": 2600,
      "uel": 2601,
      "itution": 2602,
      "▁bad": 2603,
      "▁pers": 2604,
      "▁difficult": 2605,
      "itional": 2606,
      "▁Associ": 2607,
      "▁Black": 2608,
      "▁office": 2609,
      "ips": 2610,
      "▁Here": 2611,
      "▁quite": 2612,
      "ael": 2613,
      "▁living": 2614,
      "ores": 2615,
      "ague": 2616,
      "ground": 2617,
      "▁target": 2618,
      "▁upon": 2619,
      "rest": 2620,
      "▁changes": 2621,
      "uge": 2622,
      "idge": 2623,
      "▁Net": 2624,
      "▁ill": 2625,
      "▁Ser": 2626,
      "▁staff": 2627,
      "▁Your": 2628,
      "▁matter": 2629,
      "▁Hist": 2630,
      "ocr": 2631,
      "reet": 2632,
      "▁neg": 2633,
      "▁financial": 2634,
      "▁forward": 2635,
      "}\\": 2636,
      "▁improve": 2637,
      "▁bi": 2638,
      "▁president": 2639,
      "ply": 2640,
      "▁po": 2641,
      "▁nothing": 2642,
      "▁prim": 2643,
      "▁hot": 2644,
      "itute": 2645,
      "▁added": 2646,
      "▁soft": 2647,
      "oved": 2648,
      "ises": 2649,
      "▁stay": 2650,
      "based": 2651,
      "▁production": 2652,
      "nes": 2653,
      "medi": 2654,
      "▁San": 2655,
      "▁terms": 2656,
      "bor": 2657,
      "cont": 2658,
      "▁Hol": 2659,
      "oud": 2660,
      "▁emb": 2661,
      "urg": 2662,
      "▁reported": 2663,
      "▁road": 2664,
      "▁words": 2665,
      "▁seems": 2666,
      "▁pack": 2667,
      "▁potential": 2668,
      "▁decision": 2669,
      "▁Phil": 2670,
      "apan": 2671,
      "icated": 2672,
      "Con": 2673,
      "▁specific": 2674,
      "inary": 2675,
      "ett": 2676,
      "ET": 2677,
      "▁police": 2678,
      "▁easy": 2679,
      "ittee": 2680,
      "▁Ob": 2681,
      "▁ess": 2682,
      "▁sense": 2683,
      "aker": 2684,
      "▁Calif": 2685,
      "▁wond": 2686,
      "▁systems": 2687,
      "▁Commun": 2688,
      "▁log": 2689,
      "▁training": 2690,
      "ica": 2691,
      "▁began": 2692,
      "▁Ac": 2693,
      "▁probably": 2694,
      "tain": 2695,
      "▁created": 2696,
      "▁jud": 2697,
      "▁anim": 2698,
      "▁sat": 2699,
      "lin": 2700,
      "▁everyone": 2701,
      "▁fire": 2702,
      "▁writing": 2703,
      "▁comput": 2704,
      "▁upd": 2705,
      "▁select": 2706,
      "urb": 2707,
      "▁dam": 2708,
      "▁version": 2709,
      "atform": 2710,
      "▁property": 2711,
      "▁date": 2712,
      "overed": 2713,
      "▁needed": 2714,
      "▁career": 2715,
      "▁II": 2716,
      "▁increase": 2717,
      "pre": 2718,
      "▁Manag": 2719,
      "▁legal": 2720,
      "▁sym": 2721,
      "▁lives": 2722,
      "▁town": 2723,
      "▁questions": 2724,
      "▁popular": 2725,
      "acc": 2726,
      "▁Day": 2727,
      "egin": 2728,
      "▁red": 2729,
      "itter": 2730,
      "▁Trans": 2731,
      "▁late": 2732,
      "td": 2733,
      "▁features": 2734,
      "aur": 2735,
      "▁cannot": 2736,
      "atives": 2737,
      "▁worked": 2738,
      "▁ways": 2739,
      "▁und": 2740,
      "▁moment": 2741,
      "oo": 2742,
      "▁Us": 2743,
      "▁Val": 2744,
      "uments": 2745,
      "AP": 2746,
      "ford": 2747,
      "▁Book": 2748,
      "ospital": 2749,
      "▁rate": 2750,
      "rael": 2751,
      "ached": 2752,
      "▁Up": 2753,
      "▁themselves": 2754,
      "▁outside": 2755,
      "▁TV": 2756,
      "▁higher": 2757,
      "▁isn": 2758,
      "▁rev": 2759,
      "▁consum": 2760,
      "▁itself": 2761,
      "aced": 2762,
      "▁William": 2763,
      "▁board": 2764,
      "▁tool": 2765,
      "▁includes": 2766,
      "▁English": 2767,
      "▁deg": 2768,
      "ension": 2769,
      "iful": 2770,
      "▁Bu": 2771,
      "▁influ": 2772,
      "oice": 2773,
      "▁Tw": 2774,
      "▁answ": 2775,
      "ara": 2776,
      "hood": 2777,
      "rect": 2778,
      "ese": 2779,
      "▁•": 2780,
      "ems": 2781,
      "ornia": 2782,
      "▁groups": 2783,
      "RO": 2784,
      "▁suggest": 2785,
      "\".": 2786,
      "▁pred": 2787,
      "▁provides": 2788,
      "▁girl": 2789,
      "▁takes": 2790,
      "itting": 2791,
      "rab": 2792,
      "izing": 2793,
      "action": 2794,
      "▁published": 2795,
      "▁white": 2796,
      "fl": 2797,
      "▁introdu": 2798,
      "▁cele": 2799,
      "▁network": 2800,
      "attle": 2801,
      "ij": 2802,
      "▁assist": 2803,
      "▁minutes": 2804,
      "ishing": 2805,
      "▁engine": 2806,
      "▁Ear": 2807,
      "div": 2808,
      "▁section": 2809,
      "▁vot": 2810,
      "▁soon": 2811,
      "▁campaign": 2812,
      "ening": 2813,
      "▁sus": 2814,
      "▁saw": 2815,
      "▁track": 2816,
      "▁inj": 2817,
      "html": 2818,
      "ength": 2819,
      "▁Air": 2820,
      "▁European": 2821,
      "anced": 2822,
      "▁himself": 2823,
      "▁College": 2824,
      "▁vict": 2825,
      "▁fight": 2826,
      "asc": 2827,
      "▁Home": 2828,
      "▁Red": 2829,
      "field": 2830,
      "EL": 2831,
      "col": 2832,
      "▁document": 2833,
      "▁perfect": 2834,
      "ams": 2835,
      "▁Paul": 2836,
      "▁Japan": 2837,
      "▁evidence": 2838,
      "▁link": 2839,
      "ners": 2840,
      "▁players": 2841,
      "▁growth": 2842,
      "▁protect": 2843,
      "aily": 2844,
      "▁written": 2845,
      "▁price": 2846,
      "order": 2847,
      "▁Sim": 2848,
      "▁becom": 2849,
      "lier": 2850,
      "adu": 2851,
      "tty": 2852,
      "▁recently": 2853,
      "▁size": 2854,
      "▁defin": 2855,
      "alse": 2856,
      "uses": 2857,
      "▁Research": 2858,
      "▁histor": 2859,
      "▁recomm": 2860,
      "▁integ": 2861,
      "▁administ": 2862,
      "▁Read": 2863,
      "▁sect": 2864,
      "▁mother": 2865,
      "ession": 2866,
      "ky": 2867,
      "▁Prof": 2868,
      "▁tour": 2869,
      "▁California": 2870,
      "▁ste": 2871,
      "▁Wash": 2872,
      "▁Are": 2873,
      "ny": 2874,
      "orge": 2875,
      "arter": 2876,
      "▁emer": 2877,
      "IL": 2878,
      "▁woman": 2879,
      "ables": 2880,
      "▁path": 2881,
      "▁currently": 2882,
      "▁album": 2883,
      "oke": 2884,
      "▁approach": 2885,
      "▁decl": 2886,
      "▁prior": 2887,
      "▁treatment": 2888,
      "▁Republic": 2889,
      "aving": 2890,
      "ivity": 2891,
      "▁Mor": 2892,
      "eks": 2893,
      "▁included": 2894,
      "oura": 2895,
      "ida": 2896,
      "▁loss": 2897,
      "▁norm": 2898,
      "▁pick": 2899,
      "eed": 2900,
      "▁attempt": 2901,
      "▁dise": 2902,
      "▁via": 2903,
      "umn": 2904,
      "pped": 2905,
      "▁Let": 2906,
      "ux": 2907,
      "aries": 2908,
      "▁involved": 2909,
      "▁pict": 2910,
      "hat": 2911,
      "▁Add": 2912,
      "▁economic": 2913,
      "▁deep": 2914,
      "lim": 2915,
      "useum": 2916,
      "▁cover": 2917,
      "ha": 2918,
      "▁natural": 2919,
      "Ex": 2920,
      "▁James": 2921,
      "pite": 2922,
      "▁Council": 2923,
      "▁response": 2924,
      "▁veh": 2925,
      "▁arch": 2926,
      "▁books": 2927,
      "▁Israel": 2928,
      "isions": 2929,
      "▁led": 2930,
      "ufact": 2931,
      "▁table": 2932,
      "ags": 2933,
      "▁complete": 2934,
      "▁release": 2935,
      "oring": 2936,
      "rel": 2937,
      "inks": 2938,
      "ION": 2939,
      "aint": 2940,
      "▁den": 2941,
      "▁Pal": 2942,
      "etimes": 2943,
      "▁states": 2944,
      "▁Ret": 2945,
      "▁British": 2946,
      "sych": 2947,
      "erc": 2948,
      "ING": 2949,
      "▁purch": 2950,
      "▁problems": 2951,
      "▁opportunity": 2952,
      "▁lost": 2953,
      "▁East": 2954,
      "BC": 2955,
      "▁simply": 2956,
      "▁Then": 2957,
      "mon": 2958,
      "Pro": 2959,
      "▁ful": 2960,
      "▁medical": 2961,
      "▁conditions": 2962,
      "▁Inc": 2963,
      "▁played": 2964,
      "▁Sy": 2965,
      "(\\": 2966,
      "▁sens": 2967,
      "▁related": 2968,
      "▁search": 2969,
      "▁source": 2970,
      "rought": 2971,
      "▁conduct": 2972,
      "rie": 2973,
      "▁throughout": 2974,
      "▁Op": 2975,
      "ocal": 2976,
      "wood": 2977,
      "▁modern": 2978,
      "▁title": 2979,
      "▁request": 2980,
      "arning": 2981,
      "▁father": 2982,
      "ctor": 2983,
      "mb": 2984,
      "▁knowledge": 2985,
      "▁...": 2986,
      "OT": 2987,
      "airs": 2988,
      "▁der": 2989,
      "light": 2990,
      "▁built": 2991,
      "▁Dist": 2992,
      "sequ": 2993,
      "▁sett": 2994,
      "oper": 2995,
      "rown": 2996,
      "▁Fil": 2997,
      "▁Group": 2998,
      "▁favor": 2999,
      "▁Review": 3000,
      "pir": 3001,
      "▁longer": 3002,
      "▁THE": 3003,
      "▁Washington": 3004,
      "”.": 3005,
      "==": 3006,
      "▁Why": 3007,
      "▁Canada": 3008,
      "verse": 3009,
      "▁movie": 3010,
      "▁cy": 3011,
      "anger": 3012,
      "▁paper": 3013,
      "estern": 3014,
      "dom": 3015,
      "ription": 3016,
      "vey": 3017,
      "idered": 3018,
      "duc": 3019,
      "▁tou": 3020,
      "▁Ant": 3021,
      "ror": 3022,
      "▁practice": 3023,
      "▁military": 3024,
      "('": 3025,
      "enc": 3026,
      "raw": 3027,
      "begin": 3028,
      "▁Inter": 3029,
      "▁meeting": 3030,
      "US": 3031,
      "▁*/": 3032,
      "▁relig": 3033,
      "▁leading": 3034,
      "▁region": 3035,
      "ulations": 3036,
      "▁expected": 3037,
      "▁offers": 3038,
      "erved": 3039,
      "▁drug": 3040,
      "haps": 3041,
      "arc": 3042,
      "ications": 3043,
      "▁п": 3044,
      "▁reve": 3045,
      "ст": 3046,
      "lying": 3047,
      "iber": 3048,
      "▁Cong": 3049,
      "▁broad": 3050,
      "ming": 3051,
      "ements": 3052,
      "▁threat": 3053,
      "▁released": 3054,
      "ribution": 3055,
      "▁sold": 3056,
      "▁son": 3057,
      "▁Street": 3058,
      "▁Techn": 3059,
      "▁comment": 3060,
      "▁stri": 3061,
      "oul": 3062,
      "▁interview": 3063,
      "▁Rich": 3064,
      "▁unique": 3065,
      "▁tal": 3066,
      "▁language": 3067,
      "▁playing": 3068,
      "▁analysis": 3069,
      "▁hit": 3070,
      "astic": 3071,
      "▁implement": 3072,
      "irth": 3073,
      "ressed": 3074,
      "asons": 3075,
      "▁prevent": 3076,
      "▁ut": 3077,
      "AD": 3078,
      "yond": 3079,
      "unt": 3080,
      "▁pretty": 3081,
      "lam": 3082,
      "ayer": 3083,
      "▁code": 3084,
      "▁base": 3085,
      "▁Public": 3086,
      "▁hor": 3087,
      "ography": 3088,
      "▁cand": 3089,
      "▁wasn": 3090,
      "▁Michael": 3091,
      "▁file": 3092,
      "▁Ben": 3093,
      "▁separ": 3094,
      "▁anyone": 3095,
      "▁application": 3096,
      "UR": 3097,
      "omb": 3098,
      "▁running": 3099,
      "arr": 3100,
      "▁platform": 3101,
      "▁simple": 3102,
      "rote": 3103,
      "▁tru": 3104,
      "},": 3105,
      "this": 3106,
      "irit": 3107,
      "▁install": 3108,
      "▁user": 3109,
      "▁IN": 3110,
      "▁Rober": 3111,
      "▁weeks": 3112,
      "▁Dan": 3113,
      "▁ord": 3114,
      "▁Out": 3115,
      "itation": 3116,
      "imum": 3117,
      "▁band": 3118,
      "▁General": 3119,
      "oto": 3120,
      "▁serious": 3121,
      "▁div": 3122,
      "▁leave": 3123,
      "ville": 3124,
      "▁Mod": 3125,
      "▁considered": 3126,
      "▁average": 3127,
      "▁heav": 3128,
      "idents": 3129,
      "▁image": 3130,
      "▁Found": 3131,
      "▁Other": 3132,
      "ares": 3133,
      "▁Business": 3134,
      "▁Je": 3135,
      "▁worth": 3136,
      "iation": 3137,
      "></": 3138,
      "nces": 3139,
      "istry": 3140,
      "▁stru": 3141,
      "fort": 3142,
      "isc": 3143,
      "urance": 3144,
      "▁complex": 3145,
      "alls": 3146,
      "▁culture": 3147,
      "▁Jack": 3148,
      "ico": 3149,
      "iles": 3150,
      "▁coun": 3151,
      "urd": 3152,
      "▁mention": 3153,
      "aches": 3154,
      "▁connect": 3155,
      "vis": 3156,
      "▁announced": 3157,
      "▁cross": 3158,
      "▁Ann": 3159,
      "▁Sub": 3160,
      "▁professional": 3161,
      "▁Indian": 3162,
      "rast": 3163,
      "▁ensure": 3164,
      "pose": 3165,
      "rench": 3166,
      "▁instead": 3167,
      "▁cause": 3168,
      "))": 3169,
      "illing": 3170,
      "▁dead": 3171,
      "▁Great": 3172,
      "▁style": 3173,
      "на": 3174,
      "▁capital": 3175,
      "▁immedi": 3176,
      "htt": 3177,
      "ibrary": 3178,
      "▁additional": 3179,
      "mission": 3180,
      "ecutive": 3181,
      "▁student": 3182,
      "rick": 3183,
      "▁saying": 3184,
      "erve": 3185,
      "▁Arch": 3186,
      "▁learning": 3187,
      "▁Jew": 3188,
      "▁whose": 3189,
      "aging": 3190,
      "raz": 3191,
      "▁activities": 3192,
      "▁Well": 3193,
      "▁stories": 3194,
      "▁exact": 3195,
      "▁mag": 3196,
      "▁reading": 3197,
      "▁Over": 3198,
      "▁Most": 3199,
      "▁independ": 3200,
      "aged": 3201,
      "▁wrong": 3202,
      "obile": 3203,
      "▁White": 3204,
      "aves": 3205,
      "iqu": 3206,
      "▁latest": 3207,
      "lements": 3208,
      "▁levels": 3209,
      "▁Get": 3210,
      "▁Sund": 3211,
      "▁projects": 3212,
      "▁designed": 3213,
      "ences": 3214,
      "▁nature": 3215,
      "vest": 3216,
      "itiz": 3217,
      "▁Face": 3218,
      "▁parents": 3219,
      "▁beautiful": 3220,
      "down": 3221,
      "▁director": 3222,
      "▁speak": 3223,
      "▁regular": 3224,
      "▁surpr": 3225,
      "anch": 3226,
      "name": 3227,
      "▁nation": 3228,
      "▁necessary": 3229,
      "force": 3230,
      "▁standard": 3231,
      "inated": 3232,
      "▁sil": 3233,
      "het": 3234,
      "▁gave": 3235,
      "▁Ev": 3236,
      "see": 3237,
      "▁Educ": 3238,
      "iment": 3239,
      "▁driv": 3240,
      "▁Vol": 3241,
      "▁lower": 3242,
      "▁challeng": 3243,
      "▁System": 3244,
      "rag": 3245,
      "VID": 3246,
      "▁star": 3247,
      "▁print": 3248,
      "▁round": 3249,
      "hem": 3250,
      "▁clean": 3251,
      "▁According": 3252,
      "▁Even": 3253,
      "▁Port": 3254,
      "▁extrem": 3255,
      "▁draw": 3256,
      "].": 3257,
      "▁award": 3258,
      "▁Every": 3259,
      "imately": 3260,
      "▁population": 3261,
      "chan": 3262,
      "▁See": 3263,
      "▁scient": 3264,
      "▁inside": 3265,
      "▁billion": 3266,
      "▁Science": 3267,
      "▁details": 3268,
      "▁capt": 3269,
      "▁Green": 3270,
      "▁Program": 3271,
      "where": 3272,
      "▁ability": 3273,
      "ought": 3274,
      "▁boy": 3275,
      "▁felt": 3276,
      "body": 3277,
      "▁==": 3278,
      "▁screen": 3279,
      "▁AN": 3280,
      "▁please": 3281,
      "▁brought": 3282,
      "rs": 3283,
      "▁Australia": 3284,
      "▁в": 3285,
      "▁Institute": 3286,
      "▁progress": 3287,
      "▁programs": 3288,
      "▁Thom": 3289,
      "unk": 3290,
      "▁ten": 3291,
      "opp": 3292,
      "▁hands": 3293,
      "▁oil": 3294,
      "bit": 3295,
      "▁plans": 3296,
      "▁subst": 3297,
      "}{": 3298,
      "cks": 3299,
      "▁couple": 3300,
      "▁prep": 3301,
      "▁resources": 3302,
      "▁Board": 3303,
      "atter": 3304,
      "la": 3305,
      "▁goal": 3306,
      "▁princ": 3307,
      ")$": 3308,
      "aly": 3309,
      "▁manufact": 3310,
      "oom": 3311,
      "▁customers": 3312,
      "rim": 3313,
      "rm": 3314,
      "▁science": 3315,
      "▁Mart": 3316,
      "▁Develop": 3317,
      "▁bank": 3318,
      "▁force": 3319,
      "▁extra": 3320,
      "▁developed": 3321,
      "▁block": 3322,
      "Name": 3323,
      "▁Press": 3324,
      "wor": 3325,
      "▁Rel": 3326,
      "like": 3327,
      "mitted": 3328,
      "rows": 3329,
      "▁users": 3330,
      "▁wrote": 3331,
      "mercial": 3332,
      "▁sort": 3333,
      "ties": 3334,
      "▁ter": 3335,
      "opt": 3336,
      "▁Church": 3337,
      "▁Friday": 3338,
      "▁Tex": 3339,
      "▁Since": 3340,
      "ords": 3341,
      "▁Conf": 3342,
      "▁goes": 3343,
      "▁interesting": 3344,
      "▁receive": 3345,
      "▁pan": 3346,
      "▁behav": 3347,
      "▁Rec": 3348,
      "resh": 3349,
      "arily": 3350,
      "▁safety": 3351,
      "▁stage": 3352,
      "gen": 3353,
      "▁etc": 3354,
      "▁demon": 3355,
      "▁Year": 3356,
      "▁statement": 3357,
      "▁schools": 3358,
      "▁mis": 3359,
      "▁cook": 3360,
      "▁Director": 3361,
      "▁knew": 3362,
      "▁Best": 3363,
      "ellow": 3364,
      "▁mid": 3365,
      "▁hol": 3366,
      "EO": 3367,
      "▁lack": 3368,
      "▁suff": 3369,
      "etic": 3370,
      "▁mach": 3371,
      "ado": 3372,
      "▁century": 3373,
      "▁liter": 3374,
      "▁ap": 3375,
      "▁email": 3376,
      "▁hum": 3377,
      "▁Journal": 3378,
      "▁heard": 3379,
      "osing": 3380,
      "▁civil": 3381,
      "▁options": 3382,
      "roid": 3383,
      "▁fair": 3384,
      "▁blog": 3385,
      "▁ver": 3386,
      "vin": 3387,
      "▁born": 3388,
      "pm": 3389,
      "▁Work": 3390,
      "resp": 3391,
      "▁Wed": 3392,
      "▁match": 3393,
      "▁digital": 3394,
      "▁towards": 3395,
      "▁Google": 3396,
      "rated": 3397,
      "ened": 3398,
      "▁Company": 3399,
      "LE": 3400,
      "_{\\": 3401,
      "▁lic": 3402,
      "▁fast": 3403,
      "▁attention": 3404,
      "ago": 3405,
      "▁wonder": 3406,
      "▁trade": 3407,
      "▁multiple": 3408,
      "ying": 3409,
      "▁Commission": 3410,
      "▁hear": 3411,
      "OS": 3412,
      "▁autom": 3413,
      "▁studies": 3414,
      "▁situation": 3415,
      "IG": 3416,
      "?”": 3417,
      "ра": 3418,
      "▁fem": 3419,
      "▁respond": 3420,
      "▁Africa": 3421,
      "▁bed": 3422,
      "ae": 3423,
      "mar": 3424,
      "▁Ber": 3425,
      "><": 3426,
      "▁center": 3427,
      "▁mus": 3428,
      "lands": 3429,
      "▁ball": 3430,
      "ston": 3431,
      "▁About": 3432,
      "▁organization": 3433,
      "▁Sur": 3434,
      "▁society": 3435,
      "▁surv": 3436,
      "ctions": 3437,
      "▁Bel": 3438,
      "▁display": 3439,
      "urt": 3440,
      "▁card": 3441,
      "▁costs": 3442,
      "▁Bre": 3443,
      "▁celebr": 3444,
      "▁encoura": 3445,
      "ни": 3446,
      "olic": 3447,
      "▁Association": 3448,
      "▁federal": 3449,
      "▁collection": 3450,
      "▁aim": 3451,
      "▁Mem": 3452,
      "▁acqu": 3453,
      "▁Leg": 3454,
      "▁Under": 3455,
      "rial": 3456,
      "itect": 3457,
      "▁write": 3458,
      "unction": 3459,
      "▁novel": 3460,
      "▁IS": 3461,
      "▁web": 3462,
      "itz": 3463,
      "▁sales": 3464,
      "▁color": 3465,
      "▁Sam": 3466,
      "zz": 3467,
      "wide": 3468,
      "▁Super": 3469,
      "lied": 3470,
      "ribute": 3471,
      "aughter": 3472,
      "▁govern": 3473,
      "▁Music": 3474,
      "▁hous": 3475,
      "▁box": 3476,
      "▁quickly": 3477,
      "▁organiz": 3478,
      "▁trust": 3479,
      "▁effects": 3480,
      "board": 3481,
      "ixed": 3482,
      "inter": 3483,
      "▁consist": 3484,
      "▁Def": 3485,
      "ech": 3486,
      "▁parts": 3487,
      "▁seek": 3488,
      "▁George": 3489,
      "enge": 3490,
      "mark": 3491,
      "▁England": 3492,
      "▁decided": 3493,
      "▁Sunday": 3494,
      "▁player": 3495,
      "▁teac": 3496,
      "▁Spec": 3497,
      "▁…": 3498,
      "▁kids": 3499,
      "▁rout": 3500,
      "▁occur": 3501,
      "rian": 3502,
      "▁Facebook": 3503,
      "▁Tod": 3504,
      "atal": 3505,
      "CO": 3506,
      "▁usually": 3507,
      "ava": 3508,
      "frac": 3509,
      "▁Government": 3510,
      "▁turned": 3511,
      "▁Del": 3512,
      "▁brand": 3513,
      "ulated": 3514,
      "▁Mond": 3515,
      "▁Hall": 3516,
      "▁gra": 3517,
      "▁History": 3518,
      "▁concept": 3519,
      "▁People": 3520,
      "▁located": 3521,
      "▁Angel": 3522,
      "▁Christian": 3523,
      "Cl": 3524,
      "▁contribut": 3525,
      "lished": 3526,
      "▁Service": 3527,
      "▁innov": 3528,
      "▁looks": 3529,
      "ube": 3530,
      "omp": 3531,
      "▁Mus": 3532,
      "▁blood": 3533,
      "▁streng": 3534,
      "▁workers": 3535,
      "eta": 3536,
      "▁squ": 3537,
      "nown": 3538,
      "istics": 3539,
      "▁club": 3540,
      "▁Top": 3541,
      "▁Satur": 3542,
      "▁remember": 3543,
      "▁Also": 3544,
      "▁families": 3545,
      "▁summer": 3546,
      "aith": 3547,
      "band": 3548,
      "irus": 3549,
      "enty": 3550,
      "▁!": 3551,
      "ocation": 3552,
      "rang": 3553,
      "lear": 3554,
      "inese": 3555,
      "▁farm": 3556,
      "▁named": 3557,
      "▁Texas": 3558,
      "men": 3559,
      "ki": 3560,
      "▁candid": 3561,
      "▁gets": 3562,
      "▁Mary": 3563,
      ".[": 3564,
      "Ar": 3565,
      "▁bal": 3566,
      "apter": 3567,
      "do": 3568,
      "▁shown": 3569,
      "pper": 3570,
      "▁neigh": 3571,
      "▁nearly": 3572,
      "▁French": 3573,
      "▁)": 3574,
      "▁positive": 3575,
      "icip": 3576,
      "▁particularly": 3577,
      "▁disease": 3578,
      "▁race": 3579,
      "▁assess": 3580,
      "▁Mat": 3581,
      "▁avoid": 3582,
      "▁limited": 3583,
      "da": 3584,
      "▁giving": 3585,
      "trans": 3586,
      "itar": 3587,
      "iding": 3588,
      "ellig": 3589,
      "▁Democr": 3590,
      "▁qual": 3591,
      "▁earlier": 3592,
      "class": 3593,
      "▁Life": 3594,
      "▁chance": 3595,
      "odes": 3596,
      "▁effic": 3597,
      "osition": 3598,
      "pri": 3599,
      "istan": 3600,
      "icate": 3601,
      "idth": 3602,
      "▁imag": 3603,
      "change": 3604,
      "▁demand": 3605,
      "just": 3606,
      "▁died": 3607,
      "▁directly": 3608,
      "▁effective": 3609,
      "aught": 3610,
      "▁rock": 3611,
      "▁associated": 3612,
      "▁increased": 3613,
      "▁Office": 3614,
      "▁software": 3615,
      "▁increasing": 3616,
      "▁wife": 3617,
      "def": 3618,
      "▁answer": 3619,
      "▁beyond": 3620,
      "ategy": 3621,
      "more": 3622,
      "▁phone": 3623,
      "▁convers": 3624,
      "aled": 3625,
      "▁refer": 3626,
      "▁arriv": 3627,
      "▁values": 3628,
      "▁href": 3629,
      "▁drive": 3630,
      "▁sen": 3631,
      "▁inform": 3632,
      "▁individuals": 3633,
      "▁detail": 3634,
      "▁COVID": 3635,
      "iance": 3636,
      "▁dark": 3637,
      "rief": 3638,
      "Ph": 3639,
      "ils": 3640,
      "undred": 3641,
      "UT": 3642,
      "▁thous": 3643,
      "▁Good": 3644,
      "venue": 3645,
      "▁morning": 3646,
      "▁Many": 3647,
      "ey": 3648,
      "▁false": 3649,
      "▁beginning": 3650,
      "▁earn": 3651,
      "▁meaning": 3652,
      "▁park": 3653,
      "▁Sing": 3654,
      "▁providing": 3655,
      "▁Mal": 3656,
      "▁reflect": 3657,
      "CC": 3658,
      "▁eyes": 3659,
      "hest": 3660,
      "rack": 3661,
      "bon": 3662,
      "ously": 3663,
      "itness": 3664,
      "▁firm": 3665,
      "▁Fam": 3666,
      "span": 3667,
      "▁sn": 3668,
      "▁Att": 3669,
      "wise": 3670,
      "▁successful": 3671,
      "▁ri": 3672,
      "▁plant": 3673,
      "▁\r": 3674,
      "iant": 3675,
      "ancy": 3676,
      "▁ideas": 3677,
      "▁correct": 3678,
      "▁physical": 3679,
      "▁Rob": 3680,
      "”,": 3681,
      "▁largest": 3682,
      "▁Saturday": 3683,
      "▁rules": 3684,
      "▁Congress": 3685,
      "udget": 3686,
      "▁copy": 3687,
      "▁ones": 3688,
      "▁ST": 3689,
      "ev": 3690,
      "▁Gold": 3691,
      "berg": 3692,
      "ibly": 3693,
      "▁choice": 3694,
      "▁prec": 3695,
      "▁Mac": 3696,
      "▁prem": 3697,
      "owers": 3698,
      "azing": 3699,
      "▁device": 3700,
      "▁sle": 3701,
      "▁stra": 3702,
      "mas": 3703,
      "ios": 3704,
      "emic": 3705,
      "▁Bill": 3706,
      "▁characters": 3707,
      "▁gives": 3708,
      "▁ready": 3709,
      "▁huge": 3710,
      "bb": 3711,
      "ко": 3712,
      "▁achieve": 3713,
      "String": 3714,
      "▁bott": 3715,
      "▁fans": 3716,
      "▁frequ": 3717,
      "▁reports": 3718,
      "ius": 3719,
      "ander": 3720,
      "▁highly": 3721,
      "▁Alex": 3722,
      "▁promot": 3723,
      "olf": 3724,
      "IV": 3725,
      "▁degree": 3726,
      "▁wide": 3727,
      "▁served": 3728,
      "▁Education": 3729,
      "▁pric": 3730,
      "igation": 3731,
      "▁growing": 3732,
      "▁Lou": 3733,
      "▁Sol": 3734,
      "▁Class": 3735,
      "mp": 3736,
      "▁lif": 3737,
      "▁Mil": 3738,
      "▁Mag": 3739,
      "▁gas": 3740,
      "▁Although": 3741,
      "▁anti": 3742,
      "▁allowed": 3743,
      "▁Flor": 3744,
      "▁Jer": 3745,
      "▁spent": 3746,
      "ester": 3747,
      "▁aware": 3748,
      "▁corpor": 3749,
      "▁remain": 3750,
      "▁USA": 3751,
      "▁thinking": 3752,
      "▁ded": 3753,
      "▁movement": 3754,
      "▁Child": 3755,
      "▁Chinese": 3756,
      "▁Franc": 3757,
      "▁slow": 3758,
      "▁epis": 3759,
      "▁understanding": 3760,
      "place": 3761,
      "▁ge": 3762,
      "estival": 3763,
      "▁cam": 3764,
      "▁enter": 3765,
      "fig": 3766,
      "▁described": 3767,
      "▁Monday": 3768,
      "▁Met": 3769,
      "▁efforts": 3770,
      "ped": 3771,
      "▁purpose": 3772,
      "▁activity": 3773,
      "▁location": 3774,
      "▁sal": 3775,
      "▁foreign": 3776,
      "▁sust": 3777,
      "eria": 3778,
      "▁speed": 3779,
      "▁climate": 3780,
      "bert": 3781,
      "▁cast": 3782,
      "Id": 3783,
      "▁message": 3784,
      "igned": 3785,
      "▁sometimes": 3786,
      "но": 3787,
      "▁hop": 3788,
      "▁Bank": 3789,
      "▁Rem": 3790,
      "▁happy": 3791,
      "▁piece": 3792,
      "▁Dec": 3793,
      "▁investment": 3794,
      "▁skills": 3795,
      "▁Fore": 3796,
      "▁voice": 3797,
      "▁feature": 3798,
      "CH": 3799,
      "edom": 3800,
      "▁leaders": 3801,
      "▁moved": 3802,
      "▁ult": 3803,
      "▁Cam": 3804,
      "▁Services": 3805,
      "▁clin": 3806,
      "ros": 3807,
      "ya": 3808,
      "▁journal": 3809,
      "▁Cap": 3810,
      "▁UN": 3811,
      "bre": 3812,
      "▁During": 3813,
      "▁Robert": 3814,
      "▁pull": 3815,
      "▁AM": 3816,
      "▁strugg": 3817,
      "▁aw": 3818,
      "▁solution": 3819,
      "▁Please": 3820,
      "▁door": 3821,
      "▁employees": 3822,
      "▁wel": 3823,
      "▁looked": 3824,
      "▁store": 3825,
      "],": 3826,
      "▁except": 3827,
      "▁credit": 3828,
      "▁regist": 3829,
      "▁basis": 3830,
      "▁reach": 3831,
      "▁Str": 3832,
      "ро": 3833,
      "EM": 3834,
      "▁structure": 3835,
      "▁Tom": 3836,
      "source": 3837,
      "You": 3838,
      "▁Supp": 3839,
      "▁Road": 3840,
      "weet": 3841,
      "ronic": 3842,
      "▁с": 3843,
      "oyal": 3844,
      "▁PM": 3845,
      "▁context": 3846,
      "▁id": 3847,
      "▁Committee": 3848,
      "▁benefits": 3849,
      "▁changed": 3850,
      "▁communities": 3851,
      "coming": 3852,
      "▁Star": 3853,
      "▁places": 3854,
      "▁collabor": 3855,
      "▁established": 3856,
      "▁eight": 3857,
      "ocks": 3858,
      "▁note": 3859,
      "▁sche": 3860,
      "▁traditional": 3861,
      "ero": 3862,
      "▁max": 3863,
      "▁names": 3864,
      "▁Smith": 3865,
      "▁strateg": 3866,
      "▁fully": 3867,
      "▁Plan": 3868,
      "onent": 3869,
      "▁Jud": 3870,
      "▁happened": 3871,
      "icine": 3872,
      "IM": 3873,
      "▁Profess": 3874,
      "▁carry": 3875,
      "▁teams": 3876,
      "▁paid": 3877,
      "▁types": 3878,
      "▁safe": 3879,
      "ka": 3880,
      "▁finally": 3881,
      "IP": 3882,
      "▁completely": 3883,
      "sey": 3884,
      "ults": 3885,
      "▁ang": 3886,
      "▁altern": 3887,
      "▁allows": 3888,
      "!!": 3889,
      "▁Social": 3890,
      "▁Last": 3891,
      "OL": 3892,
      "aming": 3893,
      "▁continued": 3894,
      "iers": 3895,
      "▁Two": 3896,
      "▁Any": 3897,
      "▁dream": 3898,
      "ona": 3899,
      "section": 3900,
      "▁doub": 3901,
      "▁que": 3902,
      "▁condition": 3903,
      "▁bus": 3904,
      "▁Intern": 3905,
      "▁OF": 3906,
      "▁numbers": 3907,
      "▁France": 3908,
      "encies": 3909,
      "label": 3910,
      "▁although": 3911,
      "porary": 3912,
      "▁measure": 3913,
      "sub": 3914,
      "▁emot": 3915,
      "ste": 3916,
      "▁difference": 3917,
      "itable": 3918,
      "▁Cur": 3919,
      "acity": 3920,
      "▁Report": 3921,
      "▁£": 3922,
      "▁opin": 3923,
      "▁dog": 3924,
      "▁bill": 3925,
      "▁Const": 3926,
      "ampions": 3927,
      "left": 3928,
      "bar": 3929,
      "▁transport": 3930,
      "▁seven": 3931,
      "ipment": 3932,
      "▁feed": 3933,
      "ria": 3934,
      "▁compared": 3935,
      "▁Big": 3936,
      "▁mer": 3937,
      "▁sell": 3938,
      "▁citiz": 3939,
      "▁categ": 3940,
      "▁economy": 3941,
      "▁vill": 3942,
      "▁Miss": 3943,
      "▁appropri": 3944,
      "▁followed": 3945,
      "▁Sl": 3946,
      "vention": 3947,
      "bu": 3948,
      "▁tried": 3949,
      "ancing": 3950,
      "▁church": 3951,
      "▁exhib": 3952,
      "▁=>": 3953,
      "edy": 3954,
      "▁pen": 3955,
      "▁variety": 3956,
      "▁dro": 3957,
      "▁touch": 3958,
      "akers": 3959,
      "ENT": 3960,
      "▁Oh": 3961,
      "UL": 3962,
      "DA": 3963,
      "rupt": 3964,
      "▁Thurs": 3965,
      "▁Tues": 3966,
      "▁Sal": 3967,
      "▁uses": 3968,
      "▁starting": 3969,
      "comp": 3970,
      "▁hospital": 3971,
      "▁birth": 3972,
      "▁computer": 3973,
      "▁polic": 3974,
      "house": 3975,
      "no": 3976,
      "▁shoot": 3977,
      "iller": 3978,
      "▁expand": 3979,
      "▁Av": 3980,
      "IA": 3981,
      "▁businesses": 3982,
      "ynam": 3983,
      "▁cells": 3984,
      "NA": 3985,
      "▁commercial": 3986,
      "▁yourself": 3987,
      "▁origin": 3988,
      "▁grand": 3989,
      "▁mount": 3990,
      "▁lay": 3991,
      "▁construction": 3992,
      "▁quarter": 3993,
      "itude": 3994,
      "▁moving": 3995,
      "▁status": 3996,
      "▁Minister": 3997,
      "▁du": 3998,
      "▁continu": 3999,
      "▁temper": 4000,
      "▁hundred": 4001,
      "ache": 4002,
      "▁Fe": 4003,
      "▁election": 4004,
      "▁choose": 4005,
      "--------": 4006,
      "▁legis": 4007,
      "▁spirit": 4008,
      "umber": 4009,
      "inn": 4010,
      "▁Jo": 4011,
      "ifying": 4012,
      "isation": 4013,
      "▁myself": 4014,
      "▁roll": 4015,
      "▁appoint": 4016,
      "▁fear": 4017,
      "▁`": 4018,
      "▁green": 4019,
      "▁active": 4020,
      "▁shot": 4021,
      "▁Development": 4022,
      "eq": 4023,
      "bol": 4024,
      "▁Sun": 4025,
      "▁Project": 4026,
      "▁peace": 4027,
      "▁Management": 4028,
      "▁wants": 4029,
      "▁demonstr": 4030,
      "hy": 4031,
      "ota": 4032,
      "Type": 4033,
      "▁Who": 4034,
      "eters": 4035,
      "▁Society": 4036,
      "▁leader": 4037,
      "▁remains": 4038,
      "vere": 4039,
      "This": 4040,
      "ervation": 4041,
      "▁transfer": 4042,
      "ken": 4043,
      "▁mechan": 4044,
      "aby": 4045,
      "▁alone": 4046,
      "▁wild": 4047,
      "▁apply": 4048,
      "▁brother": 4049,
      "▁vote": 4050,
      "▁Camp": 4051,
      "▁sun": 4052,
      "▁cancer": 4053,
      "rey": 4054,
      "▁establish": 4055,
      "▁Vir": 4056,
      "▁Econom": 4057,
      "▁gun": 4058,
      "▁lines": 4059,
      "▁ple": 4060,
      "▁affect": 4061,
      "▁recommend": 4062,
      "uty": 4063,
      "lor": 4064,
      "▁vacc": 4065,
      "roy": 4066,
      "▁comfort": 4067,
      "▁Germany": 4068,
      "UN": 4069,
      "▁greater": 4070,
      "ologies": 4071,
      "ounds": 4072,
      "▁Form": 4073,
      "▁Sa": 4074,
      "▁background": 4075,
      "▁Times": 4076,
      "▁materials": 4077,
      "▁Thursday": 4078,
      "mod": 4079,
      "term": 4080,
      "izes": 4081,
      "▁er": 4082,
      "▁easily": 4083,
      "▁pm": 4084,
      "▁African": 4085,
      "▁psych": 4086,
      "azine": 4087,
      "▁excell": 4088,
      "ulture": 4089,
      "imal": 4090,
      "▁Ham": 4091,
      "▁certainly": 4092,
      "▁opportunities": 4093,
      "▁Tuesday": 4094,
      "▁Step": 4095,
      "▁Women": 4096,
      "▁passed": 4097,
      "▁option": 4098,
      "▁college": 4099,
      "▁Que": 4100,
      "▁impl": 4101,
      "▁images": 4102,
      "hens": 4103,
      "edd": 4104,
      "▁Wednes": 4105,
      "▁models": 4106,
      "esc": 4107,
      "▁Florida": 4108,
      "▁operations": 4109,
      "▁Russia": 4110,
      "▁cool": 4111,
      "▁helped": 4112,
      "▁initi": 4113,
      "▁aspect": 4114,
      "outhern": 4115,
      "▁River": 4116,
      "IR": 4117,
      "eared": 4118,
      "▁critical": 4119,
      "▁void": 4120,
      "▁gold": 4121,
      "▁middle": 4122,
      "▁planning": 4123,
      "cause": 4124,
      "▁Human": 4125,
      "?\"": 4126,
      "▁Wind": 4127,
      "udd": 4128,
      "orage": 4129,
      "▁daily": 4130,
      "za": 4131,
      "▁expert": 4132,
      "▁produced": 4133,
      "▁Time": 4134,
      "box": 4135,
      "▁Union": 4136,
      "▁normal": 4137,
      "▁Today": 4138,
      "▁eval": 4139,
      "▁save": 4140,
      "▁Play": 4141,
      "▁fine": 4142,
      "▁grant": 4143,
      "▁estim": 4144,
      "irection": 4145,
      "▁parties": 4146,
      "▁central": 4147,
      "atively": 4148,
      "▁Mo": 4149,
      "▁die": 4150,
      "ano": 4151,
      "▁exactly": 4152,
      "▁perhaps": 4153,
      "▁District": 4154,
      "lick": 4155,
      "▁Hill": 4156,
      "▁Lat": 4157,
      "▁Scott": 4158,
      "▁Mex": 4159,
      "▁talking": 4160,
      "▁Hel": 4161,
      "▁deliver": 4162,
      "▁Museum": 4163,
      "........": 4164,
      "ulate": 4165,
      "▁interested": 4166,
      "list": 4167,
      "iring": 4168,
      "iar": 4169,
      "▁eth": 4170,
      "annel": 4171,
      "▁virt": 4172,
      "miss": 4173,
      "well": 4174,
      "List": 4175,
      "▁creating": 4176,
      "▁officials": 4177,
      "PS": 4178,
      "▁poor": 4179,
      "icks": 4180,
      "▁responsible": 4181,
      "▁weight": 4182,
      "▁spread": 4183,
      "▁annual": 4184,
      "state": 4185,
      "▁benefit": 4186,
      "▁Rock": 4187,
      "▁Foundation": 4188,
      "▁consult": 4189,
      "▁Frank": 4190,
      "▁Free": 4191,
      "icon": 4192,
      "type": 4193,
      "▁Twitter": 4194,
      "▁Det": 4195,
      "▁Sum": 4196,
      "▁feet": 4197,
      "ady": 4198,
      "▁primary": 4199,
      "▁Data": 4200,
      "bf": 4201,
      "▁stock": 4202,
      "risis": 4203,
      "▁attract": 4204,
      "▁Wednesday": 4205,
      "CA": 4206,
      "▁Vis": 4207,
      "▁requirements": 4208,
      "ato": 4209,
      "▁Bay": 4210,
      "▁Cr": 4211,
      "▁Bi": 4212,
      "▁unf": 4213,
      "ait": 4214,
      "▁sy": 4215,
      "▁Award": 4216,
      "▁Peter": 4217,
      "▁Care": 4218,
      "▁Carol": 4219,
      "$.": 4220,
      "▁serve": 4221,
      "▁agreement": 4222,
      "▁Thomas": 4223,
      "pective": 4224,
      "▁Richard": 4225,
      "uration": 4226,
      "▁agree": 4227,
      "▁surface": 4228,
      "▁tim": 4229,
      "igr": 4230,
      "▁sem": 4231,
      "▁ww": 4232,
      "Res": 4233,
      "▁calc": 4234,
      "▁Author": 4235,
      "▁truth": 4236,
      "▁wood": 4237,
      "levant": 4238,
      "▁killed": 4239,
      "▁income": 4240,
      "osh": 4241,
      "return": 4242,
      "▁artist": 4243,
      "▁reasons": 4244,
      "Val": 4245,
      "log": 4246,
      "itc": 4247,
      "message": 4248,
      "▁cru": 4249,
      "▁Wil": 4250,
      "▁claims": 4251,
      "▁Sk": 4252,
      "▁scene": 4253,
      "anned": 4254,
      "▁Pri": 4255,
      "yp": 4256,
      "▁?": 4257,
      "net": 4258,
      "▁immediately": 4259,
      "▁Jes": 4260,
      "gl": 4261,
      "▁rates": 4262,
      "▁secret": 4263,
      "▁gradu": 4264,
      "▁www": 4265,
      "▁AP": 4266,
      "itely": 4267,
      "point": 4268,
      "▁stuff": 4269,
      "▁Information": 4270,
      "▁chem": 4271,
      "▁experien": 4272,
      "ructure": 4273,
      "▁obvious": 4274,
      "▁Because": 4275,
      "▁victim": 4276,
      "▁Mad": 4277,
      "▁Jul": 4278,
      "▁Iran": 4279,
      "▁Chic": 4280,
      "cel": 4281,
      "▁overall": 4282,
      "▁maybe": 4283,
      "▁restaur": 4284,
      "▁sch": 4285,
      "care": 4286,
      "▁letter": 4287,
      "tained": 4288,
      "▁mission": 4289,
      "\")": 4290,
      "▁vehicle": 4291,
      "▁proced": 4292,
      "▁presented": 4293,
      "▁academ": 4294,
      "▁German": 4295,
      "▁Academ": 4296,
      "▁existing": 4297,
      "atre": 4298,
      "ula": 4299,
      "code": 4300,
      "He": 4301,
      "▁Stat": 4302,
      "Sh": 4303,
      "▁items": 4304,
      "▁beg": 4305,
      "$,": 4306,
      "▁Secret": 4307,
      "▁Tur": 4308,
      "▁comments": 4309,
      "actions": 4310,
      "▁Party": 4311,
      "▁independent": 4312,
      "▁Jose": 4313,
      "ourney": 4314,
      "▁©": 4315,
      "▁charge": 4316,
      "▁Mer": 4317,
      "antly": 4318,
      "▁solutions": 4319,
      "▁therefore": 4320,
      "▁shared": 4321,
      "▁cert": 4322,
      "▁conv": 4323,
      "iny": 4324,
      "pha": 4325,
      "▁TO": 4326,
      "▁electric": 4327,
      "▁ur": 4328,
      "▁clients": 4329,
      "▁Aut": 4330,
      "▁repe": 4331,
      "▁doll": 4332,
      "RA": 4333,
      "▁Spe": 4334,
      "reci": 4335,
      "respond": 4336,
      "▁Offic": 4337,
      "▁send": 4338,
      "▁powerful": 4339,
      "▁Di": 4340,
      "▁trial": 4341,
      "nership": 4342,
      "▁organizations": 4343,
      "▁pressure": 4344,
      "anda": 4345,
      "rad": 4346,
      "▁scen": 4347,
      "but": 4348,
      "▁Club": 4349,
      "▁commit": 4350,
      "▁pattern": 4351,
      "▁Prot": 4352,
      "▁contain": 4353,
      "▁dram": 4354,
      "atever": 4355,
      "▁couldn": 4356,
      "ented": 4357,
      "▁Global": 4358,
      ">\r": 4359,
      "▁Next": 4360,
      "rapy": 4361,
      "Cont": 4362,
      "▁absol": 4363,
      "mathcal": 4364,
      "▁challenge": 4365,
      "▁Week": 4366,
      "▁connection": 4367,
      "orthern": 4368,
      "BA": 4369,
      "Un": 4370,
      "▁Francis": 4371,
      "▁download": 4372,
      "▁propos": 4373,
      "▁load": 4374,
      "▁mess": 4375,
      "▁surround": 4376,
      "▁^": 4377,
      "▁sector": 4378,
      "▁Like": 4379,
      "▁Kore": 4380,
      "▁challenges": 4381,
      "▁Tre": 4382,
      "▁opening": 4383,
      "▁Media": 4384,
      "▁limit": 4385,
      "▁majority": 4386,
      "▁reality": 4387,
      "ashion": 4388,
      "ager": 4389,
      "cape": 4390,
      "semb": 4391,
      "▁species": 4392,
      "top": 4393,
      "▁Publ": 4394,
      "▁Islam": 4395,
      "▁Policy": 4396,
      "▁Elect": 4397,
      "▁amazing": 4398,
      "arden": 4399,
      "▁cry": 4400,
      "▁harm": 4401,
      "▁elements": 4402,
      "▁mill": 4403,
      "▁string": 4404,
      "▁initial": 4405,
      "▁budget": 4406,
      "▁Tor": 4407,
      "▁violence": 4408,
      "▁ahead": 4409,
      "▁micro": 4410,
      "▁il": 4411,
      "\":": 4412,
      "▁sports": 4413,
      "▁records": 4414,
      "arant": 4415,
      "▁favorite": 4416,
      "▁League": 4417,
      "▁strategy": 4418,
      "▁tick": 4419,
      "oma": 4420,
      "▁dat": 4421,
      "standing": 4422,
      "▁Central": 4423,
      "▁audience": 4424,
      "using": 4425,
      "▁forces": 4426,
      "▁Russian": 4427,
      "met": 4428,
      "▁toward": 4429,
      "win": 4430,
      "▁Lab": 4431,
      "▁length": 4432,
      "▁tools": 4433,
      "▁funding": 4434,
      "▁Nov": 4435,
      "▁floor": 4436,
      "▁rule": 4437,
      "▁notice": 4438,
      "ocol": 4439,
      "▁fresh": 4440,
      "TS": 4441,
      "▁List": 4442,
      "▁double": 4443,
      "antic": 4444,
      "▁Div": 4445,
      "▁Rad": 4446,
      "▁error": 4447,
      "inate": 4448,
      "rd": 4449,
      "▁customer": 4450,
      "aper": 4451,
      "▁station": 4452,
      "▁Obama": 4453,
      "eline": 4454,
      "▁laws": 4455,
      "▁Los": 4456,
      "▁advant": 4457,
      "▁figure": 4458,
      "▁highest": 4459,
      "▁sexual": 4460,
      "▁Ins": 4461,
      "anta": 4462,
      "▁hour": 4463,
      "▁sites": 4464,
      "▁miles": 4465,
      "race": 4466,
      "▁Americans": 4467,
      "▁spect": 4468,
      "▁Rev": 4469,
      "han": 4470,
      "aling": 4471,
      "▁Christmas": 4472,
      "iling": 4473,
      "▁gone": 4474,
      "▁protection": 4475,
      "▁ir": 4476,
      "▁despite": 4477,
      "rive": 4478,
      "▁Market": 4479,
      "▁faith": 4480,
      "▁EU": 4481,
      "▁lab": 4482,
      "▁Island": 4483,
      "▁offered": 4484,
      "orial": 4485,
      "ette": 4486,
      "▁thus": 4487,
      "▁numer": 4488,
      "onents": 4489,
      "▁patient": 4490,
      "oms": 4491,
      "▁marketing": 4492,
      "▁reduce": 4493,
      "▁Community": 4494,
      "▁regarding": 4495,
      "▁exerc": 4496,
      "riage": 4497,
      "▁methods": 4498,
      "▁Gen": 4499,
      "▁Lead": 4500,
      "▁satis": 4501,
      "▁equipment": 4502,
      "▁Where": 4503,
      "▁nice": 4504,
      "▁applications": 4505,
      "levision": 4506,
      "▁Som": 4507,
      "▁warm": 4508,
      "▁Back": 4509,
      "▁click": 4510,
      "date": 4511,
      "▁continues": 4512,
      "▁artists": 4513,
      "▁fig": 4514,
      "▁null": 4515,
      "▁wall": 4516,
      "▁Lu": 4517,
      "gar": 4518,
      "iled": 4519,
      "▁supply": 4520,
      "▁crim": 4521,
      "fo": 4522,
      "imb": 4523,
      "▁picture": 4524,
      "▁danger": 4525,
      "▁Open": 4526,
      "▁football": 4527,
      "▁bound": 4528,
      "▁Hot": 4529,
      "▁controll": 4530,
      "ternal": 4531,
      "▁songs": 4532,
      "▁conflic": 4533,
      "▁straight": 4534,
      "▁administration": 4535,
      "▁Brown": 4536,
      "▁jobs": 4537,
      "▁previously": 4538,
      "▁har": 4539,
      "▁launch": 4540,
      "▁lands": 4541,
      "▁Fund": 4542,
      "mary": 4543,
      "▁sequ": 4544,
      "▁Micro": 4545,
      "▁larger": 4546,
      "▁Another": 4547,
      "▁Western": 4548,
      "▁Chicago": 4549,
      "uclear": 4550,
      "▁join": 4551,
      "yer": 4552,
      "usband": 4553,
      "▁%": 4554,
      "▁feeling": 4555,
      "▁Earth": 4556,
      "PA": 4557,
      "▁»": 4558,
      "ga": 4559,
      "known": 4560,
      "▁element": 4561,
      "clusion": 4562,
      "▁predict": 4563,
      "▁Thanks": 4564,
      "▁anc": 4565,
      "▁setting": 4566,
      "▁multi": 4567,
      "▁cultural": 4568,
      "▁analy": 4569,
      "▁produce": 4570,
      "▁wat": 4571,
      "▁disapp": 4572,
      "works": 4573,
      "▁pet": 4574,
      "▁leadership": 4575,
      "▁showed": 4576,
      "estic": 4577,
      "▁CD": 4578,
      "▁ign": 4579,
      "▁Sil": 4580,
      "orney": 4581,
      "▁biggest": 4582,
      "▁Yes": 4583,
      "▁Fre": 4584,
      "▁Their": 4585,
      "erences": 4586,
      ";\r": 4587,
      "▁Web": 4588,
      "ре": 4589,
      "MS": 4590,
      "▁laun": 4591,
      "▁architect": 4592,
      "eds": 4593,
      "▁Mass": 4594,
      "▁basic": 4595,
      "▁Ep": 4596,
      "with": 4597,
      "▁Wood": 4598,
      "▁poll": 4599,
      "igration": 4600,
      "edia": 4601,
      "▁partner": 4602,
      "▁enh": 4603,
      "▁Security": 4604,
      "▁insurance": 4605,
      "ta": 4606,
      "▁**": 4607,
      "▁spot": 4608,
      "▁arrest": 4609,
      "▁Vict": 4610,
      "▁Invest": 4611,
      "▁Once": 4612,
      "osure": 4613,
      "го": 4614,
      "▁Virgin": 4615,
      "▁Mont": 4616,
      "apers": 4617,
      "▁opened": 4618,
      "▁Canad": 4619,
      "▁Engine": 4620,
      "rowd": 4621,
      "▁goals": 4622,
      "▁vs": 4623,
      "▁Nor": 4624,
      "▁sustain": 4625,
      "▁proposed": 4626,
      "▁sources": 4627,
      "▁wish": 4628,
      "▁Ma": 4629,
      "▁Tim": 4630,
      "▁kept": 4631,
      "▁unit": 4632,
      "▁generally": 4633,
      "▁train": 4634,
      "▁Family": 4635,
      "orter": 4636,
      "entially": 4637,
      "gency": 4638,
      "▁Love": 4639,
      "▁actions": 4640,
      "SS": 4641,
      "▁becomes": 4642,
      "▁actual": 4643,
      "▁pages": 4644,
      "▁direction": 4645,
      "ania": 4646,
      "osis": 4647,
      "▁Bur": 4648,
      "▁End": 4649,
      "gu": 4650,
      "asion": 4651,
      "▁accur": 4652,
      "▁daughter": 4653,
      "cite": 4654,
      "▁fit": 4655,
      "▁mobile": 4656,
      "▁Jim": 4657,
      "▁express": 4658,
      "▁factors": 4659,
      "elligence": 4660,
      "▁cat": 4661,
      "▁Down": 4662,
      "▁appropriate": 4663,
      "▁calls": 4664,
      "****": 4665,
      "▁map": 4666,
      "▁View": 4667,
      "inct": 4668,
      "▁brain": 4669,
      "▁environmental": 4670,
      "▁Special": 4671,
      "▁wait": 4672,
      "▁Lord": 4673,
      "▁meant": 4674,
      "▁Show": 4675,
      "▁attend": 4676,
      "azon": 4677,
      "fr": 4678,
      "\"/": 4679,
      "▁Mel": 4680,
      "Sc": 4681,
      "inger": 4682,
      "▁guid": 4683,
      "▁films": 4684,
      "lo": 4685,
      "fficient": 4686,
      "▁sale": 4687,
      "▁presence": 4688,
      "▁completed": 4689,
      "▁Hen": 4690,
      "▁||": 4691,
      "ca": 4692,
      "▁north": 4693,
      "▁trip": 4694,
      "path": 4695,
      "▁policies": 4696,
      "▁advert": 4697,
      "ili": 4698,
      "▁trend": 4699,
      "▁raised": 4700,
      "▁Bet": 4701,
      "eless": 4702,
      "includ": 4703,
      "▁Priv": 4704,
      "itors": 4705,
      "▁Joe": 4706,
      "▁religious": 4707,
      "ini": 4708,
      "▁Each": 4709,
      "▁susp": 4710,
      "▁forms": 4711,
      "▁eye": 4712,
      "▁whom": 4713,
      "▁Pet": 4714,
      "▁fram": 4715,
      "▁magn": 4716,
      "▁influence": 4717,
      "▁Louis": 4718,
      "▁Er": 4719,
      "▁standards": 4720,
      "ura": 4721,
      "▁Arts": 4722,
      "▁clearly": 4723,
      "▁Atl": 4724,
      "▁appears": 4725,
      "▁Design": 4726,
      "BS": 4727,
      "▁nom": 4728,
      "▁approx": 4729,
      "▁rat": 4730,
      "▁Technology": 4731,
      "▁push": 4732,
      "hips": 4733,
      "▁terror": 4734,
      "▁Cath": 4735,
      "▁caused": 4736,
      "▁param": 4737,
      "▁views": 4738,
      "andom": 4739,
      "ii": 4740,
      "▁van": 4741,
      "▁Apple": 4742,
      "▁seeing": 4743,
      "▁restrict": 4744,
      "▁Lear": 4745,
      "usion": 4746,
      "▁Bo": 4747,
      "▁capacity": 4748,
      "▁counter": 4749,
      "▁otherwise": 4750,
      "ena": 4751,
      "orrow": 4752,
      "uled": 4753,
      ",\\": 4754,
      "▁compar": 4755,
      "▁Series": 4756,
      "▁Water": 4757,
      "▁prison": 4758,
      "OM": 4759,
      "▁relevant": 4760,
      "▁joined": 4761,
      "▁famous": 4762,
      "▁Posted": 4763,
      "▁Arab": 4764,
      "As": 4765,
      "inner": 4766,
      "▁appreci": 4767,
      "▁smart": 4768,
      "▁learned": 4769,
      "▁rob": 4770,
      "▁Long": 4771,
      "▁senior": 4772,
      "▁rare": 4773,
      "▁profession": 4774,
      "To": 4775,
      "oses": 4776,
      "agram": 4777,
      "▁earth": 4778,
      "itled": 4779,
      "▁measures": 4780,
      "▁operation": 4781,
      "▁devices": 4782,
      "▁master": 4783,
      "▁Town": 4784,
      "▁pros": 4785,
      "▁rap": 4786,
      "unte": 4787,
      "▁Chief": 4788,
      "▁truly": 4789,
      "▁Conn": 4790,
      "▁client": 4791,
      "prof": 4792,
      "param": 4793,
      "▁assum": 4794,
      "ruit": 4795,
      "▁theory": 4796,
      "▁citizens": 4797,
      "ivery": 4798,
      "▁developing": 4799,
      "rig": 4800,
      "▁Oper": 4801,
      "▁Internet": 4802,
      "reek": 4803,
      "▁Power": 4804,
      "▁wouldn": 4805,
      "gment": 4806,
      "▁instr": 4807,
      "▁entertain": 4808,
      "arrow": 4809,
      "▁residents": 4810,
      "gn": 4811,
      "going": 4812,
      "▁reached": 4813,
      "data": 4814,
      "▁conference": 4815,
      "asy": 4816,
      "▁aren": 4817,
      "▁valid": 4818,
      "cell": 4819,
      "overy": 4820,
      "uit": 4821,
      "▁Whe": 4822,
      "▁insp": 4823,
      "▁flow": 4824,
      "▁Ref": 4825,
      "▁Martin": 4826,
      "active": 4827,
      "▁Land": 4828,
      "▁CEO": 4829,
      "▁cities": 4830,
      "ework": 4831,
      "▁solid": 4832,
      "▁thousands": 4833,
      "roud": 4834,
      "▁Follow": 4835,
      "dis": 4836,
      "▁RE": 4837,
      "▁loved": 4838,
      "▁trou": 4839,
      "▁Writ": 4840,
      "▁funds": 4841,
      "▁blue": 4842,
      "CE": 4843,
      "▁instance": 4844,
      "abilities": 4845,
      "▁mentioned": 4846,
      "▁Grand": 4847,
      "Col": 4848,
      "▁seemed": 4849,
      "▁unc": 4850,
      "▁weap": 4851,
      "▁entry": 4852,
      "▁husband": 4853,
      "▁south": 4854,
      "▁appeared": 4855,
      "▁spend": 4856,
      "▁writer": 4857,
      "▁defend": 4858,
      "▁radio": 4859,
      "och": 4860,
      "andemic": 4861,
      "▁Nav": 4862,
      "▁damage": 4863,
      "▁helps": 4864,
      "uries": 4865,
      "reme": 4866,
      "AG": 4867,
      "▁performed": 4868,
      "▁proceed": 4869,
      "FL": 4870,
      "yan": 4871,
      "ario": 4872,
      "}.": 4873,
      "road": 4874,
      "})": 4875,
      "▁phil": 4876,
      "▁Head": 4877,
      "▁Second": 4878,
      "▁rank": 4879,
      "OC": 4880,
      "▁generation": 4881,
      "▁closed": 4882,
      "▁strength": 4883,
      "pping": 4884,
      "▁occup": 4885,
      "▁requires": 4886,
      "▁Rights": 4887,
      "▁Police": 4888,
      "▁skin": 4889,
      "▁female": 4890,
      "ita": 4891,
      "sm": 4892,
      "▁Polit": 4893,
      "▁Angeles": 4894,
      "ala": 4895,
      "life": 4896,
      "px": 4897,
      "▁fan": 4898,
      "acing": 4899,
      "▁decades": 4900,
      "▁memory": 4901,
      "▁и": 4902,
      "iat": 4903,
      "writ": 4904,
      "▁competition": 4905,
      "▁excellent": 4906,
      "▁crisis": 4907,
      "▁reference": 4908,
      "▁Sar": 4909,
      "▁posted": 4910,
      "▁Den": 4911,
      "▁brief": 4912,
      "▁minor": 4913,
      "▁knows": 4914,
      "▁district": 4915,
      "▁Look": 4916,
      "lig": 4917,
      "comm": 4918,
      "▁purchase": 4919,
      "▁mist": 4920,
      "▁Aff": 4921,
      "▁returned": 4922,
      "sum": 4923,
      "▁journey": 4924,
      "▁rise": 4925,
      "Is": 4926,
      "SP": 4927,
      "clusive": 4928,
      "▁correspond": 4929,
      "osoph": 4930,
      "asure": 4931,
      "▁prices": 4932,
      "▁Mount": 4933,
      ")(": 4934,
      "▁photo": 4935,
      "New": 4936,
      "ho": 4937,
      "▁agency": 4938,
      "enses": 4939,
      "▁о": 4940,
      "▁offering": 4941,
      "▁officer": 4942,
      "▁experiences": 4943,
      "▁Organ": 4944,
      "▁defined": 4945,
      "▁scale": 4946,
      "▁Johnson": 4947,
      "▁becoming": 4948,
      "▁signed": 4949,
      "elta": 4950,
      "▁AL": 4951,
      "▁Enter": 4952,
      "▁researc": 4953,
      "▁resist": 4954,
      "bour": 4955,
      "▁behavior": 4956,
      "▁advice": 4957,
      "▁Chris": 4958,
      "▁fant": 4959,
      "look": 4960,
      "▁definitely": 4961,
      "▁chief": 4962,
      "▁Find": 4963,
      "▁Medical": 4964,
      "▁adapt": 4965,
      "▁indic": 4966,
      "▁NY": 4967,
      "▁transform": 4968,
      "▁manager": 4969,
      "▁instit": 4970,
      "▁essential": 4971,
      "▁opinion": 4972,
      "icit": 4973,
      "▁Main": 4974,
      "▁thank": 4975,
      "▁depend": 4976,
      "▁cop": 4977,
      "▁slight": 4978,
      "olars": 4979,
      "▁mental": 4980,
      "▁steps": 4981,
      "equation": 4982,
      "abled": 4983,
      "▁failed": 4984,
      "▁sleep": 4985,
      "▁distribution": 4986,
      "▁older": 4987,
      "▁Old": 4988,
      "▁episode": 4989,
      "▁/**": 4990,
      "ogue": 4991,
      "anging": 4992,
      "ifically": 4993,
      "▁hair": 4994,
      "▁wid": 4995,
      "▁machine": 4996,
      "▁cash": 4997,
      "▁Federal": 4998,
      "▁battle": 4999,
      "▁testing": 5000,
      "▁incred": 5001,
      "▁helping": 5002,
      "▁fol": 5003,
      "iques": 5004,
      "▁Professor": 5005,
      "▁Cle": 5006,
      "▁situ": 5007,
      "cher": 5008,
      "▁guy": 5009,
      "var": 5010,
      "▁Mike": 5011,
      "IF": 5012,
      "▁fra": 5013,
      "alled": 5014,
      "▁practices": 5015,
      "▁determine": 5016,
      "▁somew": 5017,
      "▁freedom": 5018,
      "▁Ill": 5019,
      "emporary": 5020,
      "▁ID": 5021,
      "▁amb": 5022,
      "▁Hy": 5023,
      "▁score": 5024,
      "▁input": 5025,
      "▁graph": 5026,
      "▁ended": 5027,
      "rastructure": 5028,
      "▁Person": 5029,
      "dro": 5030,
      "odies": 5031,
      "▁circum": 5032,
      "▁quant": 5033,
      "azz": 5034,
      "SA": 5035,
      "SE": 5036,
      "\"/>": 5037,
      "▁labor": 5038,
      "▁vision": 5039,
      "▁noted": 5040,
      "▁IT": 5041,
      "▁Ire": 5042,
      "▁Lake": 5043,
      "▁Jeff": 5044,
      "▁bul": 5045,
      "▁heavy": 5046,
      "▁mix": 5047,
      "}(": 5048,
      "▁Prov": 5049,
      "▁spl": 5050,
      "▁tend": 5051,
      "▁homes": 5052,
      "▁Build": 5053,
      "▁selected": 5054,
      "▁decisions": 5055,
      "▁Asia": 5056,
      "▁rich": 5057,
      "hab": 5058,
      "▁Team": 5059,
      "▁Both": 5060,
      "word": 5061,
      "▁ship": 5062,
      "aste": 5063,
      "▁Photo": 5064,
      "▁drink": 5065,
      "▁thanks": 5066,
      "▁Cy": 5067,
      "mm": 5068,
      "▁replace": 5069,
      "▁fell": 5070,
      "▁weekend": 5071,
      "▁Lee": 5072,
      "▁owner": 5073,
      "▁executive": 5074,
      "▁catch": 5075,
      "▁focused": 5076,
      "▁Justice": 5077,
      "▁Paris": 5078,
      "Re": 5079,
      "etry": 5080,
      "▁finding": 5081,
      "▁discussion": 5082,
      "▁eventually": 5083,
      "▁Test": 5084,
      "nergy": 5085,
      "▁neighbor": 5086,
      "▁prefer": 5087,
      "pected": 5088,
      "▁guide": 5089,
      "▁placed": 5090,
      "▁illust": 5091,
      "An": 5092,
      "gs": 5093,
      "▁flu": 5094,
      "▁appeal": 5095,
      "▁Charles": 5096,
      "▁street": 5097,
      "▁AND": 5098,
      "iden": 5099,
      "soft": 5100,
      "▁liber": 5101,
      "And": 5102,
      "▁Georg": 5103,
      "▁Sand": 5104,
      "oving": 5105,
      "▁Jesus": 5106,
      "▁stated": 5107,
      "atically": 5108,
      "▁bur": 5109,
      "▁crime": 5110,
      "▁dynam": 5111,
      "▁driving": 5112,
      "ри": 5113,
      "▁operating": 5114,
      "▁crowd": 5115,
      "▁Section": 5116,
      "▁covered": 5117,
      "ella": 5118,
      "eration": 5119,
      "lies": 5120,
      "▁communication": 5121,
      "▁Bob": 5122,
      "▁runs": 5123,
      "poses": 5124,
      "▁politics": 5125,
      "hi": 5126,
      "▁lived": 5127,
      "▁concent": 5128,
      "burg": 5129,
      "▁Its": 5130,
      "http": 5131,
      "▁department": 5132,
      "isher": 5133,
      "icians": 5134,
      "▁experienced": 5135,
      "PR": 5136,
      "▁Australian": 5137,
      "▁sea": 5138,
      "▁Inf": 5139,
      "▁contains": 5140,
      "▁technical": 5141,
      "▁Centre": 5142,
      "II": 5143,
      "sk": 5144,
      "igan": 5145,
      "ва": 5146,
      "▁Jewish": 5147,
      "▁passion": 5148,
      "▁task": 5149,
      "iency": 5150,
      "▁Use": 5151,
      "OW": 5152,
      "othing": 5153,
      "▁err": 5154,
      "▁core": 5155,
      "under": 5156,
      "▁Administ": 5157,
      "▁concerns": 5158,
      "ani": 5159,
      "▁authority": 5160,
      "CT": 5161,
      "night": 5162,
      "▁investigation": 5163,
      "▁extremely": 5164,
      "▁cas": 5165,
      "▁editor": 5166,
      "print": 5167,
      "▁separate": 5168,
      "▁incor": 5169,
      "▁cars": 5170,
      "▁McC": 5171,
      "nel": 5172,
      "▁throw": 5173,
      "▁justice": 5174,
      "OD": 5175,
      "▁Exp": 5176,
      "▁window": 5177,
      "▁afford": 5178,
      "▁creative": 5179,
      "▁supported": 5180,
      "▁rent": 5181,
      "▁facilities": 5182,
      "▁teaching": 5183,
      "char": 5184,
      "igma": 5185,
      "▁prote": 5186,
      "▁lock": 5187,
      "▁monitor": 5188,
      "▁mut": 5189,
      "▁dim": 5190,
      "▁Mot": 5191,
      "▁showing": 5192,
      "▁whatever": 5193,
      "▁nor": 5194,
      "▁leaving": 5195,
      "▁Adv": 5196,
      "▁Jon": 5197,
      "oes": 5198,
      "▁diagn": 5199,
      "idden": 5200,
      "▁Canadian": 5201,
      "▁onto": 5202,
      "▁Corpor": 5203,
      "ias": 5204,
      "▁disp": 5205,
      "uthors": 5206,
      "▁expression": 5207,
      "liament": 5208,
      "▁documents": 5209,
      "If": 5210,
      "▁committed": 5211,
      "▁properties": 5212,
      "ipe": 5213,
      "▁plus": 5214,
      "cean": 5215,
      "▁partnership": 5216,
      "osen": 5217,
      "▁arm": 5218,
      "▁beat": 5219,
      "▁animals": 5220,
      "▁remind": 5221,
      "▁Game": 5222,
      "▁Royal": 5223,
      "▁cold": 5224,
      "rate": 5225,
      "hand": 5226,
      "▁historical": 5227,
      "▁heat": 5228,
      "oration": 5229,
      "▁Food": 5230,
      "▁youth": 5231,
      "../../": 5232,
      "▁Roman": 5233,
      "▁interests": 5234,
      "▁issued": 5235,
      "gers": 5236,
      "iced": 5237,
      "▁distance": 5238,
      "▁articles": 5239,
      "▁Dou": 5240,
      "▁Mur": 5241,
      "▁glass": 5242,
      "▁follows": 5243,
      "▁Middle": 5244,
      "▁CH": 5245,
      "}^": 5246,
      "▁Young": 5247,
      "▁internal": 5248,
      "▁adjust": 5249,
      "CL": 5250,
      "arsh": 5251,
      "▁Muslim": 5252,
      "▁useful": 5253,
      "▁nav": 5254,
      "▁consequ": 5255,
      "▁criminal": 5256,
      "bed": 5257,
      "No": 5258,
      "▁construct": 5259,
      "inem": 5260,
      "ortunately": 5261,
      "dule": 5262,
      "OP": 5263,
      "ban": 5264,
      "▁arrang": 5265,
      "▁married": 5266,
      "▁thr": 5267,
      "▁mur": 5268,
      "▁determined": 5269,
      "▁Stand": 5270,
      "tered": 5271,
      "aren": 5272,
      "cap": 5273,
      "▁identify": 5274,
      "▁Saf": 5275,
      "value": 5276,
      "▁Indust": 5277,
      "▁border": 5278,
      "View": 5279,
      "ли": 5280,
      "▁Ver": 5281,
      "▁recorded": 5282,
      "▁introduced": 5283,
      "▁Thank": 5284,
      "▁Cup": 5285,
      "▁markets": 5286,
      "ultural": 5287,
      "▁hero": 5288,
      "▁managed": 5289,
      "urban": 5290,
      "▁visual": 5291,
      "▁happens": 5292,
      ".’": 5293,
      "▁command": 5294,
      "▁Tour": 5295,
      "▁defense": 5296,
      "▁storage": 5297,
      "cious": 5298,
      "▁Amazon": 5299,
      "oken": 5300,
      "lt": 5301,
      "zen": 5302,
      "▁Mexico": 5303,
      "▁Fire": 5304,
      "ingly": 5305,
      "Tr": 5306,
      "▁hearing": 5307,
      "▁critic": 5308,
      "▁Ira": 5309,
      "▁guess": 5310,
      "▁identified": 5311,
      "▁mostly": 5312,
      "xy": 5313,
      "irmed": 5314,
      "▁forced": 5315,
      "otic": 5316,
      "▁Ireland": 5317,
      "▁tro": 5318,
      "▁bottom": 5319,
      "▁Andrew": 5320,
      "▁pandemic": 5321,
      "▁univers": 5322,
      "▁advantage": 5323,
      "▁Japanese": 5324,
      "ishes": 5325,
      "related": 5326,
      "ffect": 5327,
      "то": 5328,
      "▁haven": 5329,
      "▁numerous": 5330,
      "~\\": 5331,
      "▁plays": 5332,
      "MA": 5333,
      "▁Exper": 5334,
      "friend": 5335,
      "▁internet": 5336,
      "▁fuel": 5337,
      "▁Wall": 5338,
      "lock": 5339,
      "empl": 5340,
      "▁Pan": 5341,
      "▁ban": 5342,
      "▁Library": 5343,
      "TH": 5344,
      "phone": 5345,
      "▁coach": 5346,
      "▁doubt": 5347,
      "▁stress": 5348,
      "▁girls": 5349,
      "\");": 5350,
      "▁Sup": 5351,
      "▁Before": 5352,
      "▁photos": 5353,
      "▁importance": 5354,
      "▁launched": 5355,
      "▁purposes": 5356,
      "▁Senate": 5357,
      "ship": 5358,
      "}_": 5359,
      "▁applied": 5360,
      "▁Way": 5361,
      "▁update": 5362,
      "▁clinical": 5363,
      "▁Virginia": 5364,
      "phas": 5365,
      "▁chair": 5366,
      "▁Jones": 5367,
      "while": 5368,
      "▁sam": 5369,
      "▁instruct": 5370,
      "▁traffic": 5371,
      "▁retail": 5372,
      "▁Id": 5373,
      "▁Victor": 5374,
      "opping": 5375,
      "')": 5376,
      "▁finished": 5377,
      "▁Du": 5378,
      "▁television": 5379,
      "▁guys": 5380,
      "inations": 5381,
      "sembly": 5382,
      "▁breat": 5383,
      "▁speech": 5384,
      "▁Ter": 5385,
      "▁Aud": 5386,
      "▁delivery": 5387,
      "rieved": 5388,
      "▁watching": 5389,
      "▁apparent": 5390,
      "▁advoc": 5391,
      "allery": 5392,
      "▁witness": 5393,
      "▁burn": 5394,
      "item": 5395,
      "▁identity": 5396,
      "translation": 5397,
      "▁Festival": 5398,
      "oted": 5399,
      "▁weather": 5400,
      "▁survey": 5401,
      "racy": 5402,
      "▁cloud": 5403,
      "▁sets": 5404,
      "▁consid": 5405,
      "▁Daniel": 5406,
      "utely": 5407,
      "ideos": 5408,
      "▁dedicated": 5409,
      "▁hab": 5410,
      "▁Call": 5411,
      "okes": 5412,
      "ser": 5413,
      "itutional": 5414,
      "▁Joseph": 5415,
      "kins": 5416,
      "ка": 5417,
      "▁Men": 5418,
      "▁explore": 5419,
      "▁officers": 5420,
      "▁hotel": 5421,
      "eah": 5422,
      "▁changing": 5423,
      "▁Film": 5424,
      "ading": 5425,
      "▁column": 5426,
      "iner": 5427,
      "illa": 5428,
      "string": 5429,
      "▁Through": 5430,
      "▁bra": 5431,
      "▁alle": 5432,
      "Get": 5433,
      "▁Cast": 5434,
      "▁PC": 5435,
      "▁Watch": 5436,
      "rison": 5437,
      "MP": 5438,
      "▁ec": 5439,
      "nam": 5440,
      "AB": 5441,
      "ribe": 5442,
      "▁Energy": 5443,
      "va": 5444,
      "▁advance": 5445,
      "olar": 5446,
      "EW": 5447,
      "ucky": 5448,
      "What": 5449,
      "▁listen": 5450,
      "inating": 5451,
      "rics": 5452,
      "▁Secretary": 5453,
      "▁institutions": 5454,
      "▁Academy": 5455,
      "▁proud": 5456,
      "Ob": 5457,
      "▁prepar": 5458,
      "▁healthy": 5459,
      "▁gar": 5460,
      "rier": 5461,
      "▁partners": 5462,
      "▁fif": 5463,
      "▁prepared": 5464,
      "▁Iraq": 5465,
      "▁pun": 5466,
      "ua": 5467,
      "Ind": 5468,
      "▁session": 5469,
      "stein": 5470,
      "▁Valley": 5471,
      "▁reli": 5472,
      "Data": 5473,
      "▁Real": 5474,
      "▁Boy": 5475,
      "▁notes": 5476,
      "▁driver": 5477,
      "alian": 5478,
      "▁Network": 5479,
      "ses": 5480,
      "▁reb": 5481,
      "▁maintain": 5482,
      "▁alternative": 5483,
      "▁movies": 5484,
      "▁carried": 5485,
      "ixt": 5486,
      "▁connected": 5487,
      "mail": 5488,
      "▁university": 5489,
      "perty": 5490,
      "▁manufacture": 5491,
      "▁pp": 5492,
      "▁Haw": 5493,
      "▁processes": 5494,
      "▁row": 5495,
      "https": 5496,
      "▁smaller": 5497,
      "▁Bas": 5498,
      "▁links": 5499,
      "oves": 5500,
      "▁camera": 5501,
      "host": 5502,
      "▁Gal": 5503,
      "▁Gra": 5504,
      "▁responsibility": 5505,
      "▁balance": 5506,
      "rehens": 5507,
      "umer": 5508,
      "rid": 5509,
      "alpha": 5510,
      "];": 5511,
      "atures": 5512,
      "▁Pac": 5513,
      "▁static": 5514,
      "Le": 5515,
      "▁Penn": 5516,
      "▁Sports": 5517,
      "ns": 5518,
      "▁Army": 5519,
      "For": 5520,
      "how": 5521,
      "▁wonderful": 5522,
      "▁Note": 5523,
      "!”": 5524,
      "▁guarant": 5525,
      "ен": 5526,
      "LC": 5527,
      "▁nut": 5528,
      "▁Ok": 5529,
      "▁files": 5530,
      "▁narr": 5531,
      "▁на": 5532,
      "▁easier": 5533,
      "▁Blue": 5534,
      "ulty": 5535,
      "▁dig": 5536,
      "▁agreed": 5537,
      "▁Coll": 5538,
      "▁Further": 5539,
      "ears": 5540,
      "▁coast": 5541,
      "▁unless": 5542,
      "▁corporate": 5543,
      "▁fashion": 5544,
      "oti": 5545,
      "▁temperature": 5546,
      "▁nuclear": 5547,
      "rum": 5548,
      "▁injury": 5549,
      "▁Environment": 5550,
      "▁tree": 5551,
      "\"><": 5552,
      "▁selection": 5553,
      "▁housing": 5554,
      "abase": 5555,
      "▁stars": 5556,
      "▁Dev": 5557,
      "itchen": 5558,
      "▁drop": 5559,
      "ups": 5560,
      "▁shut": 5561,
      "ipped": 5562,
      "ensions": 5563,
      "▁failure": 5564,
      "▁pieces": 5565,
      "igen": 5566,
      "arks": 5567,
      "▁brings": 5568,
      "▁negative": 5569,
      "▁Charl": 5570,
      "▁winning": 5571,
      "▁evening": 5572,
      "▁classes": 5573,
      "▁output": 5574,
      "▁Children": 5575,
      "oston": 5576,
      "asks": 5577,
      "▁Ken": 5578,
      "▁circumst": 5579,
      "▁decre": 5580,
      "iler": 5581,
      "▁/*": 5582,
      "▁volunte": 5583,
      "▁announce": 5584,
      "Se": 5585,
      "▁experts": 5586,
      "ooth": 5587,
      "▁kid": 5588,
      "owl": 5589,
      "▁Studies": 5590,
      "▁joint": 5591,
      "ervice": 5592,
      "▁config": 5593,
      "▁Pak": 5594,
      "▁Phot": 5595,
      "▁rapid": 5596,
      "▁adding": 5597,
      "▁sounds": 5598,
      "▁relationships": 5599,
      "▁util": 5600,
      "▁academic": 5601,
      "▁nine": 5602,
      "stream": 5603,
      "▁enforce": 5604,
      "ora": 5605,
      "▁Max": 5606,
      "ola": 5607,
      "▁Check": 5608,
      "▁fourth": 5609,
      "▁willing": 5610,
      "▁array": 5611,
      "▁units": 5612,
      "ffee": 5613,
      "▁sport": 5614,
      "▁exchange": 5615,
      "bi": 5616,
      "▁Uk": 5617,
      "achel": 5618,
      "secut": 5619,
      "rence": 5620,
      "▁distribut": 5621,
      "▁waiting": 5622,
      "ambda": 5623,
      "cript": 5624,
      "alle": 5625,
      "▁revealed": 5626,
      "DF": 5627,
      "▁centre": 5628,
      "ograp": 5629,
      "▁classic": 5630,
      "Al": 5631,
      "bur": 5632,
      "▁Ro": 5633,
      "ployment": 5634,
      "▁herself": 5635,
      "▁д": 5636,
      "▁Only": 5637,
      "thlet": 5638,
      "▁calling": 5639,
      "▁Those": 5640,
      "▁estate": 5641,
      "bo": 5642,
      "▁authorities": 5643,
      "▁Lim": 5644,
      "ingu": 5645,
      "agged": 5646,
      "▁kill": 5647,
      "▁functions": 5648,
      "▁explain": 5649,
      "▁eat": 5650,
      "▁belief": 5651,
      "▁Hor": 5652,
      "amma": 5653,
      "lymp": 5654,
      "▁raise": 5655,
      "comes": 5656,
      "▁payment": 5657,
      "unning": 5658,
      "amm": 5659,
      "▁Ell": 5660,
      "▁index": 5661,
      "▁buildings": 5662,
      "which": 5663,
      "▁Dom": 5664,
      "▁Color": 5665,
      "та": 5666,
      "Value": 5667,
      "ansion": 5668,
      "▁evalu": 5669,
      "▁shape": 5670,
      "▁Wild": 5671,
      "▁marriage": 5672,
      "▁transl": 5673,
      "▁advent": 5674,
      "▁spending": 5675,
      "▁Nig": 5676,
      "▁intended": 5677,
      "ón": 5678,
      "ensity": 5679,
      "den": 5680,
      "▁label": 5681,
      "idential": 5682,
      "▁reform": 5683,
      "▁Wal": 5684,
      "▁shares": 5685,
      "▁CA": 5686,
      "▁dial": 5687,
      "▁advanced": 5688,
      "▁debt": 5689,
      "iples": 5690,
      "▁Master": 5691,
      "▁factor": 5692,
      "▁supposed": 5693,
      "▁equal": 5694,
      "obe": 5695,
      "▁leads": 5696,
      "rical": 5697,
      "Pl": 5698,
      "▁secure": 5699,
      "▁Ext": 5700,
      "astern": 5701,
      "▁Equ": 5702,
      "▁metal": 5703,
      "fol": 5704,
      "gery": 5705,
      "agement": 5706,
      "▁ice": 5707,
      "rc": 5708,
      "▁infrastructure": 5709,
      "ancer": 5710,
      "▁item": 5711,
      "▁Card": 5712,
      "ui": 5713,
      "But": 5714,
      "▁gain": 5715,
      "▁Williams": 5716,
      ".'": 5717,
      "▁musical": 5718,
      "▁manner": 5719,
      "aks": 5720,
      "▁tells": 5721,
      "▁missing": 5722,
      "pret": 5723,
      "pace": 5724,
      "▁Despite": 5725,
      "▁coord": 5726,
      "▁Catholic": 5727,
      "▁male": 5728,
      "▁Tri": 5729,
      "▁inspir": 5730,
      "▁AT": 5731,
      "▁Ltd": 5732,
      "▁Chair": 5733,
      "▁Italy": 5734,
      "▁volume": 5735,
      "▁supporting": 5736,
      "▁facility": 5737,
      "abin": 5738,
      "ML": 5739,
      "rant": 5740,
      "▁destroy": 5741,
      "▁Champions": 5742,
      "▁IP": 5743,
      "▁grad": 5744,
      "▁tele": 5745,
      "▁affected": 5746,
      "elines": 5747,
      "▁enem": 5748,
      "▁starts": 5749,
      "▁debut": 5750,
      "▁mort": 5751,
      "▁approximately": 5752,
      "Im": 5753,
      "▁Hospital": 5754,
      "▁san": 5755,
      "▁Trust": 5756,
      "▁sched": 5757,
      "agon": 5758,
      "▁Lo": 5759,
      "▁regul": 5760,
      "▁ment": 5761,
      "▁Conference": 5762,
      "▁explained": 5763,
      "▁Gar": 5764,
      "▁Online": 5765,
      "▁discl": 5766,
      "▁fields": 5767,
      "xi": 5768,
      "▁Die": 5769,
      "▁shop": 5770,
      "cknow": 5771,
      "ushed": 5772,
      "▁holds": 5773,
      "▁ing": 5774,
      "▁scientific": 5775,
      "GB": 5776,
      "▁lit": 5777,
      "▁Walk": 5778,
      "’.": 5779,
      "▁keeping": 5780,
      "▁obtained": 5781,
      "▁conclud": 5782,
      "▁belong": 5783,
      "There": 5784,
      "▁depart": 5785,
      "itage": 5786,
      "▁·": 5787,
      "west": 5788,
      ".;": 5789,
      "ossible": 5790,
      "▁Van": 5791,
      "▁combination": 5792,
      "const": 5793,
      "▁concerned": 5794,
      "▁manage": 5795,
      "ECT": 5796,
      "▁Have": 5797,
      "▁Republican": 5798,
      "▁sharing": 5799,
      "▁approved": 5800,
      "▁baby": 5801,
      "▁researchers": 5802,
      "▁Henry": 5803,
      "▁Set": 5804,
      "orters": 5805,
      "▁Jun": 5806,
      "▁holding": 5807,
      "▁Cre": 5808,
      "▁conflict": 5809,
      "▁Sign": 5810,
      "▁teacher": 5811,
      "isters": 5812,
      "lywood": 5813,
      "▁conducted": 5814,
      "▁coverage": 5815,
      "▁matters": 5816,
      "anish": 5817,
      "▁lose": 5818,
      "▁Hon": 5819,
      "▁attacks": 5820,
      "▁plants": 5821,
      "ih": 5822,
      "▁&&": 5823,
      "link": 5824,
      "▁lots": 5825,
      "▁Britain": 5826,
      "Man": 5827,
      "▁feels": 5828,
      "▁vehicles": 5829,
      "▁Executive": 5830,
      "▁listed": 5831,
      "▁ton": 5832,
      "▁underst": 5833,
      "▁spring": 5834,
      "▁Fort": 5835,
      "▁Four": 5836,
      "▁org": 5837,
      "▁apart": 5838,
      "▁massive": 5839,
      "amin": 5840,
      "▁none": 5841,
      "▁Boston": 5842,
      "gypt": 5843,
      "▁Mic": 5844,
      "▁resol": 5845,
      "ль": 5846,
      "▁Tay": 5847,
      "▁Steve": 5848,
      "▁Carolina": 5849,
      "HS": 5850,
      "can": 5851,
      "▁wealth": 5852,
      "▁processing": 5853,
      "▁commission": 5854,
      "▁Three": 5855,
      "▁teachers": 5856,
      "▁significantly": 5857,
      "▁\\\\": 5858,
      "ographic": 5859,
      "▁remove": 5860,
      "▁pair": 5861,
      "▁Kar": 5862,
      "ocracy": 5863,
      "▁String": 5864,
      "▁Iss": 5865,
      "oster": 5866,
      "▁Space": 5867,
      "▁regional": 5868,
      "▁jump": 5869,
      "▁Liber": 5870,
      "ilit": 5871,
      "ла": 5872,
      "▁Awards": 5873,
      "size": 5874,
      "▁minimum": 5875,
      "▁satisf": 5876,
      "▁honest": 5877,
      "====": 5878,
      "▁reject": 5879,
      "▁emergency": 5880,
      "▁exercise": 5881,
      "▁phase": 5882,
      "▁($": 5883,
      "▁Pop": 5884,
      "▁argument": 5885,
      "olit": 5886,
      "eller": 5887,
      "df": 5888,
      "▁pod": 5889,
      "icial": 5890,
      "▁forest": 5891,
      "▁Scot": 5892,
      "▁Again": 5893,
      "legal": 5894,
      "▁Columb": 5895,
      "▁Supreme": 5896,
      "TER": 5897,
      "▁familiar": 5898,
      "▁Olymp": 5899,
      "▁Retrieved": 5900,
      "▁perspective": 5901,
      "elled": 5902,
      "▁vac": 5903,
      "▁motor": 5904,
      "▁allowing": 5905,
      "▁greatest": 5906,
      "SC": 5907,
      "pat": 5908,
      "All": 5909,
      "▁island": 5910,
      "omy": 5911,
      "▁Support": 5912,
      "aid": 5913,
      "▁discovered": 5914,
      "▁AR": 5915,
      "▁Civil": 5916,
      "▁registered": 5917,
      "._": 5918,
      "fe": 5919,
      "▁Live": 5920,
      "▁handle": 5921,
      "▁protected": 5922,
      "▁Govern": 5923,
      "▁bond": 5924,
      "▁dance": 5925,
      "▁emphas": 5926,
      "▁dry": 5927,
      "▁welcome": 5928,
      "law": 5929,
      "requ": 5930,
      "iana": 5931,
      "test": 5932,
      "▁Ari": 5933,
      "▁package": 5934,
      ")\\": 5935,
      "▁technologies": 5936,
      "▁bringing": 5937,
      "ressive": 5938,
      "▁pictures": 5939,
      "▁panel": 5940,
      "▁Donald": 5941,
      "iveness": 5942,
      "▁conversation": 5943,
      "icious": 5944,
      "▁sac": 5945,
      "▁Pakistan": 5946,
      "▁draft": 5947,
      "ipping": 5948,
      "▁discover": 5949,
      "▁Squ": 5950,
      "rix": 5951,
      "free": 5952,
      "▁vent": 5953,
      "▁subsc": 5954,
      "dden": 5955,
      "▁specifically": 5956,
      "▁substant": 5957,
      "▁bird": 5958,
      "cles": 5959,
      "▁doctor": 5960,
      "▁efficient": 5961,
      "width": 5962,
      "▁pil": 5963,
      "▁batter": 5964,
      "▁Product": 5965,
      "▁pool": 5966,
      "▁gender": 5967,
      "▁hyp": 5968,
      "otes": 5969,
      "iverse": 5970,
      "▁domestic": 5971,
      "ker": 5972,
      "▁Kingdom": 5973,
      "▁Ap": 5974,
      "▁carbon": 5975,
      "▁abuse": 5976,
      "’,": 5977,
      "▁aspects": 5978,
      "gor": 5979,
      "▁committee": 5980,
      "enced": 5981,
      "▁owners": 5982,
      "andon": 5983,
      "ione": 5984,
      "atus": 5985,
      "▁Copy": 5986,
      "▁tests": 5987,
      "▁Far": 5988,
      "ATION": 5989,
      "uster": 5990,
      "▁edge": 5991,
      "ompl": 5992,
      "TR": 5993,
      "▁Start": 5994,
      "▁administr": 5995,
      "▁agent": 5996,
      "▁optim": 5997,
      "▁era": 5998,
      "ivered": 5999,
      "▁flight": 6000,
      "▁resource": 6001,
      "▁Log": 6002,
      "▁inn": 6003,
      "rite": 6004,
      "▁charges": 6005,
      "▁asking": 6006,
      "▁Francisco": 6007,
      "▁doct": 6008,
      "▁fish": 6009,
      "▁Jac": 6010,
      "▁Kim": 6011,
      "ogen": 6012,
      "▁divid": 6013,
      "▁reduced": 6014,
      "▁industrial": 6015,
      "▁Code": 6016,
      "▁default": 6017,
      "hent": 6018,
      "▁fle": 6019,
      "prene": 6020,
      "▁Lar": 6021,
      "inton": 6022,
      "coh": 6023,
      "▁debate": 6024,
      "▁putting": 6025,
      "By": 6026,
      "▁Thus": 6027,
      "AA": 6028,
      "▁combined": 6029,
      "kes": 6030,
      "($": 6031,
      "▁cere": 6032,
      "▁Po": 6033,
      "▁Spring": 6034,
      "sen": 6035,
      "▁assert": 6036,
      "▁murder": 6037,
      "On": 6038,
      "▁tradition": 6039,
      "lines": 6040,
      "▁decade": 6041,
      "▁Force": 6042,
      "ba": 6043,
      "▁Eth": 6044,
      "build": 6045,
      "▁subs": 6046,
      "▁Phys": 6047,
      "▁circumstances": 6048,
      "iser": 6049,
      "▁maximum": 6050,
      "▁alleged": 6051,
      "aked": 6052,
      "▁Jackson": 6053,
      "reprene": 6054,
      "▁excited": 6055,
      "▁commitment": 6056,
      "nic": 6057,
      "▁Egypt": 6058,
      "rees": 6059,
      "▁AD": 6060,
      "mond": 6061,
      "table": 6062,
      "▁village": 6063,
      "▁sudden": 6064,
      "▁ancient": 6065,
      "▁random": 6066,
      "BI": 6067,
      "ки": 6068,
      "▁soul": 6069,
      "elly": 6070,
      "irty": 6071,
      "mosp": 6072,
      "▁creation": 6073,
      "▁removed": 6074,
      "▁animal": 6075,
      "Class": 6076,
      "▁finish": 6077,
      "▁Southern": 6078,
      "▁winter": 6079,
      "▁severe": 6080,
      "▁chemical": 6081,
      "те": 6082,
      "greg": 6083,
      "▁Ha": 6084,
      "▁Beach": 6085,
      "pload": 6086,
      "mes": 6087,
      "▁hundreds": 6088,
      "hetic": 6089,
      "▁paint": 6090,
      "▁acknow": 6091,
      "▁thoughts": 6092,
      "ran": 6093,
      "▁Microsoft": 6094,
      "▁renew": 6095,
      "▁format": 6096,
      "index": 6097,
      "▁treated": 6098,
      "▁rain": 6099,
      "arp": 6100,
      "▁mechanism": 6101,
      "▁height": 6102,
      "▁mere": 6103,
      "▁Make": 6104,
      "▁rom": 6105,
      "▁ran": 6106,
      "▁agencies": 6107,
      "▁serving": 6108,
      "▁candidate": 6109,
      "▁grew": 6110,
      "▁fat": 6111,
      "ocument": 6112,
      "orders": 6113,
      "▁formed": 6114,
      "=\\": 6115,
      "▁craft": 6116,
      "▁fort": 6117,
      "▁Digital": 6118,
      "▁rail": 6119,
      "▁believed": 6120,
      "▁fix": 6121,
      "iments": 6122,
      "▁rid": 6123,
      "▁da": 6124,
      "▁seeking": 6125,
      "▁pal": 6126,
      "▁authors": 6127,
      "▁au": 6128,
      "▁по": 6129,
      "▁king": 6130,
      "▁readers": 6131,
      "irms": 6132,
      "etime": 6133,
      "▁corner": 6134,
      "▁filed": 6135,
      "parent": 6136,
      "▁bath": 6137,
      "▁weak": 6138,
      "js": 6139,
      "▁Division": 6140,
      "▁Light": 6141,
      "▁kick": 6142,
      "▁Expl": 6143,
      "ician": 6144,
      "▁highlight": 6145,
      "▁fighting": 6146,
      "▁accident": 6147,
      "▁Medicine": 6148,
      "▁ast": 6149,
      "▁{\\": 6150,
      "▁Yet": 6151,
      "▁cooper": 6152,
      "▁DC": 6153,
      "function": 6154,
      "▁Instead": 6155,
      "▁waste": 6156,
      "▁leaves": 6157,
      "▁revenue": 6158,
      "▁theme": 6159,
      "olec": 6160,
      "▁Access": 6161,
      "ipal": 6162,
      "▁Non": 6163,
      "▁observed": 6164,
      "▁participants": 6165,
      "Exception": 6166,
      "▁reviews": 6167,
      "▁Georgia": 6168,
      "▁Sus": 6169,
      "▁entirely": 6170,
      "EP": 6171,
      "▁Take": 6172,
      "▁caught": 6173,
      "▁standing": 6174,
      "▁involve": 6175,
      "athan": 6176,
      "____": 6177,
      "▁promote": 6178,
      "▁edition": 6179,
      "▁script": 6180,
      "▁arrived": 6181,
      "anche": 6182,
      "▁confirmed": 6183,
      "▁sympt": 6184,
      "▁adop": 6185,
      "real": 6186,
      "razil": 6187,
      "▁detect": 6188,
      "▁Night": 6189,
      "és": 6190,
      "Be": 6191,
      "▁slightly": 6192,
      "▁Full": 6193,
      "▁decide": 6194,
      "power": 6195,
      "▁adults": 6196,
      "▁les": 6197,
      "cd": 6198,
      "▁library": 6199,
      "▁incorpor": 6200,
      "oles": 6201,
      "aser": 6202,
      "▁Games": 6203,
      "▁crew": 6204,
      "prise": 6205,
      "▁Ol": 6206,
      "▁worse": 6207,
      "ipl": 6208,
      "▁symbol": 6209,
      "▁Right": 6210,
      "▁begins": 6211,
      "▁defe": 6212,
      "▁employment": 6213,
      "rich": 6214,
      "▁flex": 6215,
      "▁intelligence": 6216,
      "▁drugs": 6217,
      "));": 6218,
      "▁assistance": 6219,
      "▁territ": 6220,
      "pack": 6221,
      "▁ON": 6222,
      "uing": 6223,
      "onav": 6224,
      "▁flat": 6225,
      "ador": 6226,
      "osophy": 6227,
      "▁accompl": 6228,
      "hop": 6229,
      "▁transition": 6230,
      "▁inspired": 6231,
      "▁Win": 6232,
      "▁relatively": 6233,
      "ircraft": 6234,
      "fra": 6235,
      "ghan": 6236,
      "king": 6237,
      "▁indeed": 6238,
      "sl": 6239,
      "EST": 6240,
      "▁differences": 6241,
      "eler": 6242,
      "▁newsp": 6243,
      "▁assets": 6244,
      "▁concert": 6245,
      "}\r": 6246,
      "▁Pay": 6247,
      "▁plenty": 6248,
      "content": 6249,
      "▁veter": 6250,
      "▁square": 6251,
      "▁spons": 6252,
      "▁Est": 6253,
      "▁subsequ": 6254,
      "▁syn": 6255,
      "▁Italian": 6256,
      "▁filled": 6257,
      "▁dollars": 6258,
      "▁ideal": 6259,
      "apping": 6260,
      "▁consumer": 6261,
      "▁Democratic": 6262,
      "▁forget": 6263,
      "osc": 6264,
      "▁returns": 6265,
      "CR": 6266,
      "▁diss": 6267,
      "▁examples": 6268,
      "▁Little": 6269,
      "▁absolutely": 6270,
      "po": 6271,
      "kin": 6272,
      "▁Article": 6273,
      "▁Korea": 6274,
      "iano": 6275,
      "▁Windows": 6276,
      "Int": 6277,
      "pty": 6278,
      "▁///": 6279,
      "▁Fair": 6280,
      "▁aid": 6281,
      "▁category": 6282,
      "person": 6283,
      "ati": 6284,
      "tes": 6285,
      "▁Palest": 6286,
      "▁Hom": 6287,
      "▁Term": 6288,
      "▁Does": 6289,
      "otal": 6290,
      "ellect": 6291,
      "▁obtain": 6292,
      "othes": 6293,
      "▁accounts": 6294,
      "▁Matt": 6295,
      "▁server": 6296,
      "arts": 6297,
      "eps": 6298,
      "▁vul": 6299,
      "oral": 6300,
      "▁Pass": 6301,
      "▁Story": 6302,
      "Mod": 6303,
      "▁Previous": 6304,
      "▁positions": 6305,
      "▁seat": 6306,
      "▁Mid": 6307,
      "▁Did": 6308,
      "▁Irish": 6309,
      "mathbb": 6310,
      "▁PR": 6311,
      "upp": 6312,
      "▁sand": 6313,
      "▁Kenn": 6314,
      "▁regulations": 6315,
      "▁solar": 6316,
      "▁«": 6317,
      "ulf": 6318,
      "▁motion": 6319,
      "stra": 6320,
      "war": 6321,
      "▁Spanish": 6322,
      "▁gather": 6323,
      "abeth": 6324,
      "▁statements": 6325,
      "▁figures": 6326,
      "▁techniques": 6327,
      "▁Dar": 6328,
      "pire": 6329,
      "▁exciting": 6330,
      "De": 6331,
      "EF": 6332,
      "▁tom": 6333,
      "▁{\r": 6334,
      "essions": 6335,
      "▁Video": 6336,
      "▁Fed": 6337,
      "▁Creat": 6338,
      "▁restaurant": 6339,
      "▁visitors": 6340,
      "▁remaining": 6341,
      "▁legislation": 6342,
      "▁pursu": 6343,
      "▁Histor": 6344,
      "En": 6345,
      "▁perman": 6346,
      "Qu": 6347,
      "alysis": 6348,
      "rehensive": 6349,
      "▁Cross": 6350,
      "▁motiv": 6351,
      "▁forg": 6352,
      "▁Prime": 6353,
      "▁bright": 6354,
      "▁ce": 6355,
      "▁trees": 6356,
      "▁delivered": 6357,
      "▁Theatre": 6358,
      "outs": 6359,
      "ansas": 6360,
      "asters": 6361,
      "rome": 6362,
      "▁stick": 6363,
      "▁Click": 6364,
      "▁goods": 6365,
      "long": 6366,
      "▁swe": 6367,
      "▁Taylor": 6368,
      "water": 6369,
      "▁Michigan": 6370,
      "▁causes": 6371,
      "▁Mov": 6372,
      "▁hun": 6373,
      "▁Mean": 6374,
      "▁components": 6375,
      "▁judge": 6376,
      "▁license": 6377,
      "mu": 6378,
      "▁detailed": 6379,
      "▁elim": 6380,
      "yers": 6381,
      "jo": 6382,
      "▁Son": 6383,
      "▁locations": 6384,
      "▁Engineering": 6385,
      "ja": 6386,
      "▁mir": 6387,
      "▁uns": 6388,
      "▁Brook": 6389,
      "▁videos": 6390,
      "▁employee": 6391,
      "▁religion": 6392,
      "▁victory": 6393,
      "ERS": 6394,
      "tenance": 6395,
      "▁educational": 6396,
      "▁museum": 6397,
      "draw": 6398,
      "▁Circ": 6399,
      "▁dangerous": 6400,
      "▁Wat": 6401,
      "▁referred": 6402,
      "▁candidates": 6403,
      "▁discussed": 6404,
      "▁enjoyed": 6405,
      "pet": 6406,
      "▁Ram": 6407,
      "▁Sciences": 6408,
      "▁shock": 6409,
      "ifications": 6410,
      "▁Ent": 6411,
      "▁native": 6412,
      "▁recognized": 6413,
      "▁route": 6414,
      "▁urban": 6415,
      "▁negoti": 6416,
      "uable": 6417,
      "▁iron": 6418,
      "▁Contact": 6419,
      "ye": 6420,
      "▁tow": 6421,
      "aded": 6422,
      "▁prove": 6423,
      "iture": 6424,
      "AY": 6425,
      "▁wear": 6426,
      "DS": 6427,
      "▁turns": 6428,
      "▁WH": 6429,
      "▁flo": 6430,
      "▁speaking": 6431,
      "ket": 6432,
      "▁persons": 6433,
      "App": 6434,
      "bridge": 6435,
      "▁brows": 6436,
      "aven": 6437,
      "▁Pacific": 6438,
      "issions": 6439,
      "▁accepted": 6440,
      "▁odd": 6441,
      "▁reporting": 6442,
      "▁Key": 6443,
      "Object": 6444,
      "▁chain": 6445,
      "▁Kh": 6446,
      "ylv": 6447,
      "▁charged": 6448,
      "▁channel": 6449,
      "▁stopped": 6450,
      "othe": 6451,
      "▁studio": 6452,
      "inding": 6453,
      "▁sides": 6454,
      "▁entered": 6455,
      "▁fill": 6456,
      "lem": 6457,
      "ruption": 6458,
      "▁investors": 6459,
      "urrent": 6460,
      "erves": 6461,
      "▁medium": 6462,
      "▁SP": 6463,
      "▁yes": 6464,
      "▁Eliz": 6465,
      "▁Jr": 6466,
      "eper": 6467,
      "▁objects": 6468,
      "Americ": 6469,
      "▁conver": 6470,
      "▁spoke": 6471,
      "▁sister": 6472,
      "onavirus": 6473,
      "FC": 6474,
      "▁Know": 6475,
      "▁snow": 6476,
      "▁walking": 6477,
      "▁mand": 6478,
      "▁millions": 6479,
      "Er": 6480,
      "▁possibly": 6481,
      "▁MP": 6482,
      "resents": 6483,
      "▁Brazil": 6484,
      "▁Orig": 6485,
      "▁conven": 6486,
      "arian": 6487,
      "▁Custom": 6488,
      "▁Though": 6489,
      "▁Prem": 6490,
      "▁tun": 6491,
      "taining": 6492,
      "▁mode": 6493,
      "▁sample": 6494,
      "▁beauty": 6495,
      "▁fellow": 6496,
      "▁ven": 6497,
      "▁planet": 6498,
      "▁fab": 6499,
      "▁honor": 6500,
      "▁resolution": 6501,
      "ommod": 6502,
      "▁facts": 6503,
      "▁originally": 6504,
      "page": 6505,
      "▁telling": 6506,
      "▁pref": 6507,
      "phi": 6508,
      "▁Nick": 6509,
      "▁gift": 6510,
      "▁updated": 6511,
      "▁km": 6512,
      "▁planned": 6513,
      "merce": 6514,
      "▁topic": 6515,
      "script": 6516,
      "align": 6517,
      "▁contrast": 6518,
      "▁favour": 6519,
      "▁Rest": 6520,
      "ownt": 6521,
      "raine": 6522,
      "▁desire": 6523,
      "level": 6524,
      "▁ongoing": 6525,
      "▁household": 6526,
      "▁worldwide": 6527,
      "▁tit": 6528,
      "▁receiving": 6529,
      "▁Northern": 6530,
      "▁professionals": 6531,
      "▁Maybe": 6532,
      "▁Still": 6533,
      "yles": 6534,
      "▁shel": 6535,
      "▁schedule": 6536,
      "▁signs": 6537,
      "illy": 6538,
      "TC": 6539,
      "▁distinct": 6540,
      "▁engineering": 6541,
      "▁Queen": 6542,
      "anges": 6543,
      "▁extended": 6544,
      "edding": 6545,
      "array": 6546,
      "▁typically": 6547,
      "▁directed": 6548,
      "inity": 6549,
      "▁minute": 6550,
      "▁Ron": 6551,
      "▁Sea": 6552,
      "gent": 6553,
      "noon": 6554,
      "inst": 6555,
      "▁adm": 6556,
      "▁extent": 6557,
      "▁Foot": 6558,
      "▁risks": 6559,
      "%)": 6560,
      "▁Meet": 6561,
      "▁guitar": 6562,
      "pi": 6563,
      "isk": 6564,
      "▁virtual": 6565,
      "▁Rom": 6566,
      "▁Local": 6567,
      "_\\": 6568,
      "▁Mu": 6569,
      "▁icon": 6570,
      "▁Guide": 6571,
      "▁respectively": 6572,
      "!\"": 6573,
      "▁interpret": 6574,
      "▁programme": 6575,
      "▁implementation": 6576,
      "▁Books": 6577,
      "▁Girl": 6578,
      "ensus": 6579,
      "▁scholars": 6580,
      "▁neighborhood": 6581,
      "▁exec": 6582,
      "▁incident": 6583,
      "Don": 6584,
      "▁estimated": 6585,
      "▁Kn": 6586,
      "esterday": 6587,
      "▁Resp": 6588,
      "▁sweet": 6589,
      "▁Therefore": 6590,
      "▁Turn": 6591,
      "▁confidence": 6592,
      "▁owned": 6593,
      "▁plot": 6594,
      "▁Finally": 6595,
      "▁posts": 6596,
      "▁switch": 6597,
      "▁Fred": 6598,
      "iti": 6599,
      "▁recon": 6600,
      "▁Zeal": 6601,
      "mathbf": 6602,
      "ocket": 6603,
      "▁sad": 6604,
      "▁Current": 6605,
      "▁emotional": 6606,
      "file": 6607,
      "▁council": 6608,
      "▁Ren": 6609,
      "▁selling": 6610,
      "aph": 6611,
      "▁appearance": 6612,
      "▁Hard": 6613,
      "▁Tem": 6614,
      "▁phen": 6615,
      "▁Table": 6616,
      "▁quiet": 6617,
      "▁expressed": 6618,
      "▁atmosp": 6619,
      "cription": 6620,
      "▁assessment": 6621,
      "▁claimed": 6622,
      "▁privacy": 6623,
      "▁accord": 6624,
      "▁west": 6625,
      "▁III": 6626,
      "▁Financial": 6627,
      "▁Mult": 6628,
      "▁execut": 6629,
      "▁warn": 6630,
      "().": 6631,
      "▁featured": 6632,
      "▁Coast": 6633,
      "▁chapter": 6634,
      "▁rac": 6635,
      "▁fixed": 6636,
      "▁victims": 6637,
      "▁consumers": 6638,
      "gorith": 6639,
      "▁behavi": 6640,
      "▁dress": 6641,
      "▁improved": 6642,
      "▁Season": 6643,
      "▁coal": 6644,
      "endment": 6645,
      "rec": 6646,
      "▁Psych": 6647,
      "gely": 6648,
      "▁Tal": 6649,
      "▁Carl": 6650,
      "▁county": 6651,
      "▁contemporary": 6652,
      "▁furn": 6653,
      "▁instrument": 6654,
      "▁Lind": 6655,
      "▁diverse": 6656,
      "▁Fox": 6657,
      "stract": 6658,
      "▁stream": 6659,
      "▁weapons": 6660,
      "adow": 6661,
      "▁ends": 6662,
      "▁Bra": 6663,
      "▁closer": 6664,
      "▁literature": 6665,
      "osite": 6666,
      "▁Spain": 6667,
      "▁Tax": 6668,
      "▁Stan": 6669,
      "▁sitting": 6670,
      "▁therapy": 6671,
      "▁Eric": 6672,
      "▁Sat": 6673,
      "▁Page": 6674,
      "▁profile": 6675,
      "▁Bern": 6676,
      "▁з": 6677,
      "▁forth": 6678,
      "▁Daily": 6679,
      "▁frame": 6680,
      "▁happening": 6681,
      "TA": 6682,
      "▁Cost": 6683,
      "▁bought": 6684,
      "crete": 6685,
      "▁ourselves": 6686,
      "▁Sir": 6687,
      "▁represents": 6688,
      "▁ride": 6689,
      "▁suggested": 6690,
      "▁talent": 6691,
      "uls": 6692,
      "▁sufficient": 6693,
      "iary": 6694,
      "▁component": 6695,
      "style": 6696,
      "▁Ray": 6697,
      "▁NOT": 6698,
      "▁definition": 6699,
      "▁strategies": 6700,
      "▁MS": 6701,
      "▁fasc": 6702,
      "wan": 6703,
      "▁constant": 6704,
      "▁Rod": 6705,
      "▁delay": 6706,
      "▁__": 6707,
      "▁Sher": 6708,
      "enger": 6709,
      "▁bodies": 6710,
      "run": 6711,
      "▁Ohio": 6712,
      "That": 6713,
      "news": 6714,
      "▁м": 6715,
      "osit": 6716,
      "▁;": 6717,
      "▁photograph": 6718,
      "ureau": 6719,
      "iki": 6720,
      "▁remained": 6721,
      "ounter": 6722,
      "enth": 6723,
      "▁Applic": 6724,
      "▁vast": 6725,
      "▁Hu": 6726,
      "▁reasonable": 6727,
      "door": 6728,
      "▁Perform": 6729,
      "position": 6730,
      "▁Ash": 6731,
      "zy": 6732,
      "▁virus": 6733,
      "▁talks": 6734,
      "▁AS": 6735,
      "▁comfortable": 6736,
      "from": 6737,
      "cohol": 6738,
      "▁Using": 6739,
      "ло": 6740,
      "CS": 6741,
      "uling": 6742,
      "▁Zealand": 6743,
      "▁shooting": 6744,
      "▁Hun": 6745,
      "ле": 6746,
      "▁!=": 6747,
      "▁roles": 6748,
      "▁description": 6749,
      "▁Labor": 6750,
      "▁liqu": 6751,
      "▁storm": 6752,
      "utch": 6753,
      "▁Hand": 6754,
      "▁coffee": 6755,
      "▁regions": 6756,
      "▁teen": 6757,
      "inson": 6758,
      "▁button": 6759,
      "▁Administration": 6760,
      "▁cart": 6761,
      "▁arts": 6762,
      "With": 6763,
      "ervative": 6764,
      "ether": 6765,
      "▁Control": 6766,
      "▁teach": 6767,
      "onto": 6768,
      "fil": 6769,
      "▁Copyright": 6770,
      "ums": 6771,
      "uality": 6772,
      ");\r": 6773,
      "▁twice": 6774,
      "▁ped": 6775,
      "▁considering": 6776,
      "▁Li": 6777,
      "redit": 6778,
      "▁scientists": 6779,
      "▁god": 6780,
      "ibilities": 6781,
      "ifts": 6782,
      "▁elected": 6783,
      "▁serves": 6784,
      "▁moments": 6785,
      "foot": 6786,
      "▁occasion": 6787,
      "holders": 6788,
      "cover": 6789,
      "▁Search": 6790,
      "▁fees": 6791,
      "ATE": 6792,
      "▁pure": 6793,
      "▁guard": 6794,
      "▁suggests": 6795,
      "▁rough": 6796,
      "▁worst": 6797,
      "ads": 6798,
      "▁Ryan": 6799,
      "ighter": 6800,
      "▁arms": 6801,
      "▁signal": 6802,
      "▁accomp": 6803,
      "▁isol": 6804,
      "▁Field": 6805,
      "▁Lew": 6806,
      "▁Bal": 6807,
      "inent": 6808,
      "▁vulner": 6809,
      "group": 6810,
      "▁expensive": 6811,
      "▁enable": 6812,
      "▁portion": 6813,
      "\";": 6814,
      "▁Which": 6815,
      "▁recip": 6816,
      "▁Es": 6817,
      "user": 6818,
      "▁Disney": 6819,
      "▁founded": 6820,
      "▁Ly": 6821,
      "▁chosen": 6822,
      "▁Jenn": 6823,
      "▁electronic": 6824,
      "iro": 6825,
      "rovers": 6826,
      "▁acting": 6827,
      "▁proof": 6828,
      "▁cards": 6829,
      "ez": 6830,
      "▁largely": 6831,
      "▁river": 6832,
      "▁legisl": 6833,
      "▁Clin": 6834,
      "^{-": 6835,
      "▁scheme": 6836,
      "▁broken": 6837,
      "▁Stephen": 6838,
      "lyn": 6839,
      "DP": 6840,
      "adium": 6841,
      "▁networks": 6842,
      "▁facing": 6843,
      "▁earned": 6844,
      "▁adult": 6845,
      "born": 6846,
      "pan": 6847,
      "▁banks": 6848,
      "▁remark": 6849,
      "▁kitchen": 6850,
      "▁Anth": 6851,
      "▁innovation": 6852,
      "▁Mrs": 6853,
      "▁Cov": 6854,
      "▁holiday": 6855,
      "▁agric": 6856,
      "tra": 6857,
      "▁stands": 6858,
      "osa": 6859,
      "▁Point": 6860,
      "▁CN": 6861,
      "onym": 6862,
      "▁evolution": 6863,
      "rog": 6864,
      "case": 6865,
      "▁rot": 6866,
      "▁Adam": 6867,
      "][": 6868,
      "option": 6869,
      "▁impossible": 6870,
      "▁taught": 6871,
      "▁campus": 6872,
      "▁houses": 6873,
      "ao": 6874,
      "▁Assist": 6875,
      "▁Action": 6876,
      "conn": 6877,
      "▁sav": 6878,
      "Time": 6879,
      "▁collaboration": 6880,
      "▁observ": 6881,
      "▁league": 6882,
      "▁Fact": 6883,
      "iversary": 6884,
      "Par": 6885,
      "agues": 6886,
      "▁imagine": 6887,
      "orough": 6888,
      "▁boys": 6889,
      "▁professor": 6890,
      "bal": 6891,
      "adel": 6892,
      "▁Bush": 6893,
      "▁Source": 6894,
      "▁accommod": 6895,
      "▁encourage": 6896,
      "▁increasingly": 6897,
      "▁Elizabeth": 6898,
      "amental": 6899,
      "▁suit": 6900,
      "obs": 6901,
      "▁Broad": 6902,
      "▁describe": 6903,
      "▁ultimately": 6904,
      "My": 6905,
      "orry": 6906,
      "▁innovative": 6907,
      "▁surprise": 6908,
      "▁tough": 6909,
      "▁mel": 6910,
      "▁aircraft": 6911,
      "▁acts": 6912,
      "▁actor": 6913,
      "▁Radio": 6914,
      "ptions": 6915,
      "ican": 6916,
      "▁healthcare": 6917,
      "▁humans": 6918,
      "▁collected": 6919,
      "▁Cook": 6920,
      "▁Put": 6921,
      "▁stores": 6922,
      "lambda": 6923,
      "не": 6924,
      "▁relative": 6925,
      "▁Tags": 6926,
      "State": 6927,
      "color": 6928,
      "▁enforcement": 6929,
      "▁Fac": 6930,
      "▁Ms": 6931,
      "ifies": 6932,
      "▁mouth": 6933,
      "▁historic": 6934,
      "▁revolution": 6935,
      "▁orders": 6936,
      "olds": 6937,
      "▁finds": 6938,
      "▁Mah": 6939,
      "▁à": 6940,
      "fast": 6941,
      "▁worry": 6942,
      "ESS": 6943,
      "▁OR": 6944,
      "во": 6945,
      "length": 6946,
      "▁stret": 6947,
      "UM": 6948,
      "creen": 6949,
      "cons": 6950,
      "ras": 6951,
      "▁>>": 6952,
      "▁colle": 6953,
      "▁info": 6954,
      "▁intent": 6955,
      "udi": 6956,
      "▁Blog": 6957,
      "inder": 6958,
      "▁seconds": 6959,
      "location": 6960,
      "▁Asian": 6961,
      "icted": 6962,
      "cho": 6963,
      "▁recording": 6964,
      "▁possibility": 6965,
      "anna": 6966,
      "▁resulting": 6967,
      "▁extensive": 6968,
      "▁compens": 6969,
      "mat": 6970,
      "▁Categ": 6971,
      "▁Luc": 6972,
      "▁fee": 6973,
      "▁recovery": 6974,
      "▁existence": 6975,
      "ogy": 6976,
      "▁FOR": 6977,
      "':": 6978,
      "▁effectively": 6979,
      "aine": 6980,
      "rage": 6981,
      "▁soc": 6982,
      "▁practical": 6983,
      "EX": 6984,
      "▁wine": 6985,
      "edu": 6986,
      "▁afternoon": 6987,
      "▁Tenn": 6988,
      "iral": 6989,
      "ned": 6990,
      "Bl": 6991,
      "Text": 6992,
      "▁Ford": 6993,
      "Ed": 6994,
      "▁Jersey": 6995,
      "▁believes": 6996,
      "▁evol": 6997,
      "▁cro": 6998,
      "▁Such": 6999,
      "▁Ur": 7000,
      "▁Officer": 7001,
      "ordan": 7002,
      "avor": 7003,
      "▁Imp": 7004,
      "iest": 7005,
      "uma": 7006,
      "▁Ox": 7007,
      "▁simpl": 7008,
      "angle": 7009,
      "▁strategic": 7010,
      "▁surrounding": 7011,
      "▁CL": 7012,
      "fin": 7013,
      "▁awarded": 7014,
      "apore": 7015,
      "▁occurred": 7016,
      "usal": 7017,
      "▁external": 7018,
      "izer": 7019,
      "▁Hollywood": 7020,
      "▁confirm": 7021,
      "▁Order": 7022,
      "bsp": 7023,
      "▁winner": 7024,
      "▁powers": 7025,
      "▁Disc": 7026,
      "▁tight": 7027,
      "aduate": 7028,
      "▁streets": 7029,
      "bury": 7030,
      "unicip": 7031,
      "rency": 7032,
      "profit": 7033,
      "▁manufacturing": 7034,
      "▁consistent": 7035,
      "▁advertising": 7036,
      "▁symptoms": 7037,
      "ellectual": 7038,
      "^{\\": 7039,
      "Set": 7040,
      "▁east": 7041,
      "▁elig": 7042,
      "▁sustainable": 7043,
      "▁suc": 7044,
      "▁Staff": 7045,
      "▁wire": 7046,
      "▁participate": 7047,
      "acter": 7048,
      "lights": 7049,
      "▁minister": 7050,
      "▁Viet": 7051,
      "▁depth": 7052,
      "that": 7053,
      "▁Brian": 7054,
      "▁widely": 7055,
      "▁attorney": 7056,
      "erman": 7057,
      "▁shift": 7058,
      "eries": 7059,
      "car": 7060,
      "icide": 7061,
      "▁closely": 7062,
      "▁Chapter": 7063,
      "ifer": 7064,
      "▁Bul": 7065,
      "▁Common": 7066,
      "▁pregn": 7067,
      "enda": 7068,
      "▁magazine": 7069,
      "▁mine": 7070,
      "▁Mir": 7071,
      "▁MA": 7072,
      "oir": 7073,
      "▁struggle": 7074,
      "▁mit": 7075,
      "▁alt": 7076,
      "▁database": 7077,
      "ер": 7078,
      "▁ring": 7079,
      "▁Cas": 7080,
      "▁properly": 7081,
      "▁Economic": 7082,
      "▁grown": 7083,
      "▁boost": 7084,
      "▁Cat": 7085,
      "▁comprehensive": 7086,
      "▁bigger": 7087,
      "▁Connect": 7088,
      "▁realize": 7089,
      "ello": 7090,
      "▁rooms": 7091,
      "▁domain": 7092,
      "▁latter": 7093,
      "url": 7094,
      "▁expansion": 7095,
      "iform": 7096,
      "▁Mill": 7097,
      "▁Imm": 7098,
      "');": 7099,
      "▁Dam": 7100,
      "▁enhance": 7101,
      "▁Latin": 7102,
      "lets": 7103,
      "▁wave": 7104,
      "▁repeated": 7105,
      "▁vaccine": 7106,
      "▁reaction": 7107,
      "%,": 7108,
      "▁bes": 7109,
      "▁totally": 7110,
      "File": 7111,
      "▁Chem": 7112,
      "▁mail": 7113,
      "▁usual": 7114,
      "pass": 7115,
      "erry": 7116,
      "▁cycle": 7117,
      "▁reput": 7118,
      "▁colon": 7119,
      "▁agents": 7120,
      "▁protein": 7121,
      "▁equival": 7122,
      "▁Ca": 7123,
      "▁principles": 7124,
      "▁awards": 7125,
      "ти": 7126,
      "Comp": 7127,
      "▁Hotel": 7128,
      "public": 7129,
      "PM": 7130,
      "▁Date": 7131,
      "omet": 7132,
      "▁flood": 7133,
      "oking": 7134,
      "▁structures": 7135,
      "▁hydro": 7136,
      "▁medicine": 7137,
      "grade": 7138,
      "▁upper": 7139,
      "aron": 7140,
      "▁Agency": 7141,
      "▁framework": 7142,
      "▁successfully": 7143,
      "▁Case": 7144,
      "▁Bru": 7145,
      "▁Wilson": 7146,
      "▁Published": 7147,
      "▁entertainment": 7148,
      "▁fly": 7149,
      "They": 7150,
      "▁garden": 7151,
      "▁Biden": 7152,
      "▁Sym": 7153,
      "ormal": 7154,
      "▁mixed": 7155,
      "▁tech": 7156,
      "▁Ministry": 7157,
      "▁spaces": 7158,
      "esome": 7159,
      "▁nob": 7160,
      "▁trig": 7161,
      "Tube": 7162,
      "aug": 7163,
      "agraph": 7164,
      "stone": 7165,
      "▁elections": 7166,
      "▁},": 7167,
      "child": 7168,
      "een": 7169,
      "▁retire": 7170,
      "thew": 7171,
      "isa": 7172,
      "▁Modern": 7173,
      "etary": 7174,
      "▁Vice": 7175,
      "▁duty": 7176,
      "▁Instagram": 7177,
      "▁steel": 7178,
      "▁explains": 7179,
      "▁Harry": 7180,
      "▁Sarah": 7181,
      "teen": 7182,
      "▁Pract": 7183,
      "Ad": 7184,
      "▁Swed": 7185,
      "phy": 7186,
      "▁supports": 7187,
      "essed": 7188,
      "▁passing": 7189,
      "▁Capital": 7190,
      "▁Students": 7191,
      "▁acid": 7192,
      "▁suspect": 7193,
      "owered": 7194,
      "▁Country": 7195,
      "▁audio": 7196,
      "rible": 7197,
      "▁Contin": 7198,
      "▁Nic": 7199,
      "▁represented": 7200,
      "▁findings": 7201,
      "overty": 7202,
      "ampion": 7203,
      "▁courses": 7204,
      "▁maintenance": 7205,
      "Test": 7206,
      "▁shap": 7207,
      "▁Quest": 7208,
      "▁writers": 7209,
      "▁Guard": 7210,
      "▁meetings": 7211,
      "}_{": 7212,
      "▁Dun": 7213,
      "▁unable": 7214,
      "▁letters": 7215,
      "ortion": 7216,
      "inois": 7217,
      "spec": 7218,
      "Key": 7219,
      "▁Clinton": 7220,
      "▁integr": 7221,
      "▁achieved": 7222,
      "▁Jews": 7223,
      "▁illegal": 7224,
      "▁paying": 7225,
      "▁trading": 7226,
      "▁joy": 7227,
      "ride": 7228,
      "Element": 7229,
      "▁protest": 7230,
      "nbsp": 7231,
      "▁Song": 7232,
      "▁Rog": 7233,
      "ulous": 7234,
      "duction": 7235,
      "▁Kong": 7236,
      "▁union": 7237,
      "▁recommended": 7238,
      "she": 7239,
      "aints": 7240,
      "▁linked": 7241,
      "▁younger": 7242,
      "▁jur": 7243,
      "▁Travel": 7244,
      "▁alleg": 7245,
      "amber": 7246,
      "▁hall": 7247,
      "▁Manager": 7248,
      "▁Colorado": 7249,
      "▁turning": 7250,
      "▁Kevin": 7251,
      "▁experiment": 7252,
      "zer": 7253,
      "uzz": 7254,
      "▁arrested": 7255,
      "▁succeed": 7256,
      "ilton": 7257,
      "EA": 7258,
      "▁lie": 7259,
      "▁Greek": 7260,
      "▁Was": 7261,
      "ko": 7262,
      "hire": 7263,
      "▁Privacy": 7264,
      "▁Never": 7265,
      "ping": 7266,
      "▁procedures": 7267,
      "sem": 7268,
      "▁Member": 7269,
      "\\\\": 7270,
      "▁capable": 7271,
      "BO": 7272,
      "▁Whether": 7273,
      "▁##": 7274,
      "ela": 7275,
      "▁division": 7276,
      "▁approval": 7277,
      "▁recognition": 7278,
      "▁twenty": 7279,
      "▁army": 7280,
      "▁Democrats": 7281,
      "itals": 7282,
      "▁Senior": 7283,
      "▁vo": 7284,
      "▁guests": 7285,
      "▁Philipp": 7286,
      "▁Capt": 7287,
      "ima": 7288,
      "▁governments": 7289,
      "ells": 7290,
      "▁relax": 7291,
      "▁topics": 7292,
      "▁cookies": 7293,
      "▁covers": 7294,
      "----------------": 7295,
      "▁stone": 7296,
      "ila": 7297,
      "▁relation": 7298,
      "▁advis": 7299,
      "EG": 7300,
      "▁Afghan": 7301,
      "▁publication": 7302,
      "CD": 7303,
      "ashed": 7304,
      "▁awareness": 7305,
      "lik": 7306,
      "▁Age": 7307,
      "▁SH": 7308,
      "tw": 7309,
      "▁Building": 7310,
      "▁Bon": 7311,
      "▁primarily": 7312,
      "▁Corporation": 7313,
      "▁loan": 7314,
      "▁Pot": 7315,
      "▁refuge": 7316,
      "▁increases": 7317,
      "ournament": 7318,
      "TV": 7319,
      "▁behalf": 7320,
      "▁Wel": 7321,
      "='": 7322,
      "▁Eastern": 7323,
      "▁sole": 7324,
      "▁appointed": 7325,
      "▁zero": 7326,
      "да": 7327,
      "}^{": 7328,
      "▁stood": 7329,
      "▁Emer": 7330,
      "then": 7331,
      "▁Brad": 7332,
      "▁Comput": 7333,
      "▁mo": 7334,
      "▁Dead": 7335,
      "▁provider": 7336,
      "▁bag": 7337,
      "arters": 7338,
      "▁react": 7339,
      "▁Rose": 7340,
      "▁providers": 7341,
      "▁trouble": 7342,
      "▁deaths": 7343,
      "▁poly": 7344,
      "awa": 7345,
      "▁Death": 7346,
      "▁dropped": 7347,
      "▁facilit": 7348,
      "urities": 7349,
      "▁incredible": 7350,
      "dated": 7351,
      "▁NAS": 7352,
      "▁informed": 7353,
      "▁prepare": 7354,
      "▁Hou": 7355,
      "▁exceed": 7356,
      "▁exposure": 7357,
      "▁lies": 7358,
      "icity": 7359,
      "quir": 7360,
      "▁fold": 7361,
      "▁remote": 7362,
      "▁Low": 7363,
      "▁Pen": 7364,
      "▁§": 7365,
      "▁hate": 7366,
      "▁enth": 7367,
      "▁frequently": 7368,
      "▁diversity": 7369,
      "▁Vill": 7370,
      "▁Figure": 7371,
      "▁Da": 7372,
      "▁Singapore": 7373,
      "▁exhibition": 7374,
      "▁opposition": 7375,
      "▁athlet": 7376,
      "▁basket": 7377,
      "razy": 7378,
      "▁Univers": 7379,
      "▁missed": 7380,
      "▁generated": 7381,
      "▁Bol": 7382,
      "▁attended": 7383,
      "▁rele": 7384,
      "▁tracks": 7385,
      "Com": 7386,
      "▁Prince": 7387,
      "▁Hong": 7388,
      "▁Parliament": 7389,
      "HT": 7390,
      "igrants": 7391,
      "▁upcoming": 7392,
      "▁Scotland": 7393,
      "▁mal": 7394,
      "▁formal": 7395,
      "apped": 7396,
      "▁Toronto": 7397,
      "▁Kat": 7398,
      "bel": 7399,
      "▁stim": 7400,
      "▁Editor": 7401,
      "▁Systems": 7402,
      "▁NFL": 7403,
      "▁smooth": 7404,
      "Error": 7405,
      "▁entreprene": 7406,
      "▁Site": 7407,
      "▁Among": 7408,
      "▁scheduled": 7409,
      "▁Mach": 7410,
      "▁Wars": 7411,
      "ylvania": 7412,
      "▁Area": 7413,
      "▁faster": 7414,
      "▁assign": 7415,
      "RC": 7416,
      "anguages": 7417,
      "▁Unf": 7418,
      "itzer": 7419,
      "▁busy": 7420,
      "▁AI": 7421,
      "▁losing": 7422,
      "vy": 7423,
      "▁exists": 7424,
      "▁por": 7425,
      "▁decor": 7426,
      "▁engaged": 7427,
      "▁tack": 7428,
      "▁immediate": 7429,
      "sigma": 7430,
      "▁gro": 7431,
      "map": 7432,
      "▁degrees": 7433,
      "▁Pers": 7434,
      "▁exception": 7435,
      "asts": 7436,
      "▁graduate": 7437,
      "▁Cru": 7438,
      "▁Bang": 7439,
      "▁updates": 7440,
      "ega": 7441,
      "▁wedding": 7442,
      "ologist": 7443,
      "▁expertise": 7444,
      "RI": 7445,
      "▁mainly": 7446,
      "bro": 7447,
      "ependent": 7448,
      "▁reduction": 7449,
      "▁YouTube": 7450,
      "▁controvers": 7451,
      "▁anywhere": 7452,
      "post": 7453,
      "▁discipl": 7454,
      "ifest": 7455,
      "▁surgery": 7456,
      "▁pharm": 7457,
      "▁register": 7458,
      "▁Link": 7459,
      "▁relief": 7460,
      "▁yield": 7461,
      "▁thick": 7462,
      "▁granted": 7463,
      "uts": 7464,
      "▁champions": 7465,
      "aka": 7466,
      "▁uncertain": 7467,
      "ulating": 7468,
      "▁fiction": 7469,
      "AF": 7470,
      "▁Santa": 7471,
      "onic": 7472,
      "▁stake": 7473,
      "▁inspect": 7474,
      "eping": 7475,
      "▁Illinois": 7476,
      "▁Change": 7477,
      "▁alongside": 7478,
      "Event": 7479,
      "▁Kent": 7480,
      "▁engage": 7481,
      "▁Major": 7482,
      "Add": 7483,
      "▁Islamic": 7484,
      "des": 7485,
      "▁Return": 7486,
      "▁broadcast": 7487,
      "umes": 7488,
      "▁procedure": 7489,
      "opher": 7490,
      "▁settings": 7491,
      "▁Cub": 7492,
      "ersion": 7493,
      "worth": 7494,
      "▁Friend": 7495,
      "▁DO": 7496,
      "▁Prom": 7497,
      "▁knowing": 7498,
      "▁counsel": 7499,
      "▁Davis": 7500,
      "▁ordered": 7501,
      "ceived": 7502,
      "▁impressive": 7503,
      "▁challenging": 7504,
      "imental": 7505,
      "anes": 7506,
      "▁rural": 7507,
      "▁Perhaps": 7508,
      "abet": 7509,
      "erg": 7510,
      "▁thread": 7511,
      "▁Select": 7512,
      "▁buying": 7513,
      "▁sight": 7514,
      "▁presentation": 7515,
      "());": 7516,
      "▁profit": 7517,
      "▁tested": 7518,
      "burgh": 7519,
      "▁(\\": 7520,
      "ali": 7521,
      "▁clar": 7522,
      "▁architecture": 7523,
      "▁obviously": 7524,
      "▁neither": 7525,
      "▁Jordan": 7526,
      "▁valuable": 7527,
      "▁laugh": 7528,
      "▁competitive": 7529,
      "Go": 7530,
      "▁depending": 7531,
      "▁constit": 7532,
      "▁choices": 7533,
      "umin": 7534,
      "VD": 7535,
      "▁Ariz": 7536,
      "▁egg": 7537,
      "endar": 7538,
      "▁Study": 7539,
      "['": 7540,
      "▁fundamental": 7541,
      "eren": 7542,
      "▁provision": 7543,
      "▁scr": 7544,
      "▁Sn": 7545,
      "▁Method": 7546,
      "▁landscape": 7547,
      "▁bomb": 7548,
      "▁Ah": 7549,
      "▁shopping": 7550,
      "▁ok": 7551,
      "▁vary": 7552,
      "▁nurs": 7553,
      "▁kinds": 7554,
      "▁undert": 7555,
      "ira": 7556,
      "▁guidance": 7557,
      "▁messages": 7558,
      "▁synt": 7559,
      "▁sick": 7560,
      "▁na": 7561,
      "▁Place": 7562,
      "ishop": 7563,
      "▁resistance": 7564,
      "rip": 7565,
      "orne": 7566,
      "%.": 7567,
      "▁Ukraine": 7568,
      "▁DNA": 7569,
      "bra": 7570,
      "▁plastic": 7571,
      "▁comparison": 7572,
      "▁typical": 7573,
      "▁adopted": 7574,
      "▁Nations": 7575,
      "▁lin": 7576,
      "rt": 7577,
      "▁Syria": 7578,
      "▁assault": 7579,
      "▁seriously": 7580,
      "osm": 7581,
      "▁lux": 7582,
      "▁Edward": 7583,
      "▁featuring": 7584,
      "▁mob": 7585,
      "▁Has": 7586,
      "▁studied": 7587,
      "▁Rh": 7588,
      "▁disappoint": 7589,
      "++": 7590,
      "▁Foreign": 7591,
      "▁killing": 7592,
      "▁performing": 7593,
      "▁potentially": 7594,
      "NS": 7595,
      "IO": 7596,
      "▁(“": 7597,
      "▁recognize": 7598,
      "▁prompt": 7599,
      "▁Saint": 7600,
      "▁licens": 7601,
      "▁algorith": 7602,
      "▁vital": 7603,
      "star": 7604,
      "▁Ra": 7605,
      "▁Lic": 7606,
      "▁Image": 7607,
      "▁Bad": 7608,
      "acks": 7609,
      "atics": 7610,
      "▁Soft": 7611,
      "▁layer": 7612,
      "▁dinner": 7613,
      "ogether": 7614,
      "▁Personal": 7615,
      "-\\": 7616,
      "▁Agre": 7617,
      "▁assume": 7618,
      "▁efficiency": 7619,
      "ilty": 7620,
      "▁Run": 7621,
      "▁regularly": 7622,
      "▁listening": 7623,
      "▁unknown": 7624,
      "▁continuing": 7625,
      "Not": 7626,
      "▁scenes": 7627,
      "earing": 7628,
      "found": 7629,
      "▁taste": 7630,
      "▁compris": 7631,
      "▁accused": 7632,
      "▁Cro": 7633,
      "▁ED": 7634,
      "▁courts": 7635,
      "▁proposal": 7636,
      "▁MD": 7637,
      "RS": 7638,
      "cm": 7639,
      "▁accordance": 7640,
      "▁Event": 7641,
      "▁rub": 7642,
      "▁explan": 7643,
      "iable": 7644,
      "▁operate": 7645,
      "▁Happ": 7646,
      "▁faces": 7647,
      "Or": 7648,
      "▁bon": 7649,
      "▁accurate": 7650,
      "▁taxes": 7651,
      "gov": 7652,
      "▁necessarily": 7653,
      "Requ": 7654,
      "ifier": 7655,
      "▁BBC": 7656,
      "▁involving": 7657,
      "▁ending": 7658,
      "▁Stock": 7659,
      "▁patterns": 7660,
      "▁sky": 7661,
      "▁friendly": 7662,
      "claim": 7663,
      "▁spiritual": 7664,
      "▁cheap": 7665,
      "▁Miller": 7666,
      "rav": 7667,
      "never": 7668,
      "▁root": 7669,
      "▁Turkey": 7670,
      "▁Ball": 7671,
      "▁Android": 7672,
      "▁anticip": 7673,
      "▁horse": 7674,
      "▁brands": 7675,
      "▁resc": 7676,
      "▁answers": 7677,
      "php": 7678,
      "UP": 7679,
      "▁Marc": 7680,
      "▁CON": 7681,
      "ALL": 7682,
      "▁Columbia": 7683,
      "▁Conc": 7684,
      "▁soci": 7685,
      "▁Word": 7686,
      "▁Short": 7687,
      "▁Matthew": 7688,
      "making": 7689,
      "Up": 7690,
      "mann": 7691,
      "AND": 7692,
      "(),": 7693,
      "▁guest": 7694,
      "▁Ba": 7695,
      "................": 7696,
      "▁С": 7697,
      "▁Future": 7698,
      "anged": 7699,
      "▁yesterday": 7700,
      "▁walls": 7701,
      "▁Works": 7702,
      "rooms": 7703,
      "▁Ven": 7704,
      "▁Princ": 7705,
      "▁singer": 7706,
      "▁controlled": 7707,
      "▁veget": 7708,
      "▁consequences": 7709,
      "▁parameters": 7710,
      "▁beach": 7711,
      "ART": 7712,
      "ificate": 7713,
      "Phone": 7714,
      "cerning": 7715,
      "▁hell": 7716,
      "adelph": 7717,
      "▁legend": 7718,
      "▁fraud": 7719,
      "core": 7720,
      "▁Members": 7721,
      "▁bridge": 7722,
      "sylvania": 7723,
      "▁Download": 7724,
      "▁Tony": 7725,
      "▁papers": 7726,
      "▁picked": 7727,
      "▁Israeli": 7728,
      "▁oblig": 7729,
      "▁soldiers": 7730,
      "▁contribute": 7731,
      "▁wearing": 7732,
      "'.": 7733,
      "▁sought": 7734,
      "▁association": 7735,
      "▁moves": 7736,
      "▁applicable": 7737,
      "iac": 7738,
      "▁discrim": 7739,
      "▁specified": 7740,
      "▁ju": 7741,
      "▁SC": 7742,
      "oding": 7743,
      "▁Ali": 7744,
      "▁authent": 7745,
      "▁Lin": 7746,
      "▁Trade": 7747,
      "ront": 7748,
      "▁boat": 7749,
      "▁у": 7750,
      "rell": 7751,
      "▁realized": 7752,
      "aire": 7753,
      "▁drivers": 7754,
      "▁riv": 7755,
      "owntown": 7756,
      "▁Palestin": 7757,
      "▁nations": 7758,
      "▁communications": 7759,
      "▁Les": 7760,
      "▁});": 7761,
      "▁interface": 7762,
      "▁Account": 7763,
      "▁Affairs": 7764,
      "true": 7765,
      "EE": 7766,
      "▁somewhat": 7767,
      "aret": 7768,
      "}{\\": 7769,
      "OV": 7770,
      "ilon": 7771,
      "▁strike": 7772,
      "▁visited": 7773,
      "▁contest": 7774,
      "▁surprising": 7775,
      "▁alive": 7776,
      "▁festival": 7777,
      "▁purs": 7778,
      "▁pra": 7779,
      "gener": 7780,
      "uous": 7781,
      "▁consent": 7782,
      "▁Farm": 7783,
      "▁apparently": 7784,
      "▁entr": 7785,
      "reens": 7786,
      "??": 7787,
      "▁Scient": 7788,
      "▁pray": 7789,
      "▁elev": 7790,
      "AV": 7791,
      "abs": 7792,
      "isition": 7793,
      "ls": 7794,
      "▁Fall": 7795,
      "▁monitoring": 7796,
      "ailed": 7797,
      "adelphia": 7798,
      "▁voters": 7799,
      "▁tickets": 7800,
      "lay": 7801,
      "away": 7802,
      "ints": 7803,
      "▁alcohol": 7804,
      "▁understood": 7805,
      "▁б": 7806,
      "▁entitled": 7807,
      "▁Greg": 7808,
      "▁Fun": 7809,
      "▁Magazine": 7810,
      "▁reader": 7811,
      "▁organized": 7812,
      "Of": 7813,
      "▁strict": 7814,
      "▁payments": 7815,
      "▁attribut": 7816,
      "▁percentage": 7817,
      "When": 7818,
      "▁promise": 7819,
      "bec": 7820,
      "athe": 7821,
      "▁roof": 7822,
      "▁von": 7823,
      "▁PS": 7824,
      "▁Summer": 7825,
      "▁Following": 7826,
      "▁empty": 7827,
      "▁Sep": 7828,
      "▁excess": 7829,
      "\"></": 7830,
      "▁performances": 7831,
      "▁foundation": 7832,
      "oz": 7833,
      "▁zone": 7834,
      "▁permanent": 7835,
      "▁engagement": 7836,
      "ión": 7837,
      "▁invent": 7838,
      "▁replaced": 7839,
      "▁repair": 7840,
      "front": 7841,
      "▁dynamic": 7842,
      "▁drawn": 7843,
      "prot": 7844,
      "▁pulled": 7845,
      "▁visiting": 7846,
      "▁trained": 7847,
      "▁scored": 7848,
      "▁measured": 7849,
      "▁delight": 7850,
      "▁Culture": 7851,
      "count": 7852,
      "▁contribution": 7853,
      "▁Lewis": 7854,
      "▁feedback": 7855,
      "pson": 7856,
      "isd": 7857,
      "▁provisions": 7858,
      "▁platforms": 7859,
      "▁deals": 7860,
      "▁Should": 7861,
      "▁McG": 7862,
      "owa": 7863,
      "▁Bat": 7864,
      "▁extreme": 7865,
      "▁installed": 7866,
      "▁narrative": 7867,
      "▁extension": 7868,
      "▁plane": 7869,
      "anny": 7870,
      "▁southern": 7871,
      "▁contributions": 7872,
      "itarian": 7873,
      "iami": 7874,
      "▁molec": 7875,
      "▁surprised": 7876,
      "▁hat": 7877,
      "obby": 7878,
      "▁narrow": 7879,
      "otype": 7880,
      "etts": 7881,
      "▁adds": 7882,
      "▁grade": 7883,
      "▁fantastic": 7884,
      "aza": 7885,
      "Def": 7886,
      "▁habit": 7887,
      "▁parking": 7888,
      "▁Cond": 7889,
      "▁Pennsylvania": 7890,
      "▁newly": 7891,
      "▁Josh": 7892,
      "▁prohib": 7893,
      "▁Rome": 7894,
      "open": 7895,
      "▁evil": 7896,
      "illiant": 7897,
      "▁battery": 7898,
      "▁liked": 7899,
      "arg": 7900,
      "▁subjects": 7901,
      "PL": 7902,
      "makers": 7903,
      "world": 7904,
      "▁scope": 7905,
      "▁Band": 7906,
      "▁trail": 7907,
      "▁generate": 7908,
      "wing": 7909,
      "wa": 7910,
      "▁Hay": 7911,
      "nav": 7912,
      "▁Early": 7913,
      "▁EX": 7914,
      "heim": 7915,
      "heast": 7916,
      "▁producer": 7917,
      "cers": 7918,
      "▁Hope": 7919,
      "▁auto": 7920,
      "Ref": 7921,
      "▁Having": 7922,
      "doi": 7923,
      "▁finance": 7924,
      "▁Box": 7925,
      "▁Ten": 7926,
      "▁Jean": 7927,
      "▁opposite": 7928,
      "▁phenomen": 7929,
      "▁celeb": 7930,
      "▁LA": 7931,
      "▁Lady": 7932,
      "▁hasn": 7933,
      "▁limits": 7934,
      "FF": 7935,
      "you": 7936,
      "▁walked": 7937,
      "cling": 7938,
      "▁nearby": 7939,
      "▁wal": 7940,
      "▁hopes": 7941,
      "▁suffering": 7942,
      "asp": 7943,
      "▁Tech": 7944,
      "▁writes": 7945,
      "▁tail": 7946,
      "▁submitted": 7947,
      "▁Requ": 7948,
      "ны": 7949,
      "▁climb": 7950,
      "▁dealing": 7951,
      "▁Arizona": 7952,
      "anth": 7953,
      "sex": 7954,
      "achus": 7955,
      "olis": 7956,
      "cor": 7957,
      "▁transportation": 7958,
      "▁samples": 7959,
      "Context": 7960,
      "▁conscious": 7961,
      "▁Bible": 7962,
      "▁Holy": 7963,
      "▁actors": 7964,
      "▁atmosphere": 7965,
      "▁sentence": 7966,
      "American": 7967,
      "lix": 7968,
      "▁yards": 7969,
      "▁Small": 7970,
      "▁situations": 7971,
      "….": 7972,
      "▁GM": 7973,
      "▁node": 7974,
      "']": 7975,
      "▁Things": 7976,
      "▁Patrick": 7977,
      "▁accessible": 7978,
      "ials": 7979,
      "▁é": 7980,
      "▁expectations": 7981,
      "pg": 7982,
      "▁drama": 7983,
      "▁bare": 7984,
      "▁Houston": 7985,
      "▁emissions": 7986,
      "▁myst": 7987,
      "▁compliance": 7988,
      "▁moral": 7989,
      "▁Treat": 7990,
      "▁faculty": 7991,
      "PC": 7992,
      "▁Avenue": 7993,
      "▁contained": 7994,
      "weight": 7995,
      "▁module": 7996,
      "▁firms": 7997,
      "▁Transport": 7998,
      "▁principal": 7999,
      "version": 8000,
      "▁approaches": 8001,
      "▁integrated": 8002,
      "▁appreciate": 8003,
      "oval": 8004,
      "▁’": 8005,
      "▁subsid": 8006,
      "▁painting": 8007,
      "▁outcomes": 8008,
      "▁rising": 8009,
      "Conn": 8010,
      "▁illness": 8011,
      "▁invited": 8012,
      "▁);": 8013,
      "▁Pack": 8014,
      "How": 8015,
      "▁injuries": 8016,
      "▁~": 8017,
      "press": 8018,
      "▁Cancer": 8019,
      "▁dismiss": 8020,
      "acle": 8021,
      "▁bear": 8022,
      "▁compos": 8023,
      "scale": 8024,
      "▁participation": 8025,
      "▁Records": 8026,
      "itionally": 8027,
      "▁Meanwhile": 8028,
      "aska": 8029,
      "missions": 8030,
      "fall": 8031,
      "▁helpful": 8032,
      "▁};": 8033,
      "▁initiative": 8034,
      "▁colour": 8035,
      "▁Roll": 8036,
      "▁swim": 8037,
      "▁driven": 8038,
      "lient": 8039,
      "▁Bell": 8040,
      "▁Environmental": 8041,
      "Read": 8042,
      "alo": 8043,
      "▁Ess": 8044,
      "inals": 8045,
      "▁automatically": 8046,
      "▁outstanding": 8047,
      "folio": 8048,
      "bsite": 8049,
      "▁sees": 8050,
      "▁Sav": 8051,
      "▁truck": 8052,
      "▁heads": 8053,
      "▁doors": 8054,
      "▁$(": 8055,
      "▁П": 8056,
      "▁abandon": 8057,
      "▁Model": 8058,
      "▁Dark": 8059,
      "▁Beh": 8060,
      "▁outcome": 8061,
      "▁define": 8062,
      "▁aggress": 8063,
      "▁combat": 8064,
      "beta": 8065,
      "▁los": 8066,
      "▁watched": 8067,
      "▁improvement": 8068,
      "break": 8069,
      "BN": 8070,
      "▁capture": 8071,
      "▁Crit": 8072,
      "▁Sov": 8073,
      "▁cup": 8074,
      "▁Father": 8075,
      "▁Attorney": 8076,
      "▁neuro": 8077,
      "▁dates": 8078,
      "▁registration": 8079,
      "▁plug": 8080,
      "▁faced": 8081,
      "▁prospect": 8082,
      "▁celebrate": 8083,
      "iot": 8084,
      "▁Grant": 8085,
      "including": 8086,
      "▁basically": 8087,
      "pa": 8088,
      "▁Sche": 8089,
      "vo": 8090,
      "▁pip": 8091,
      "▁broke": 8092,
      "▁Comments": 8093,
      "mony": 8094,
      "▁plate": 8095,
      "▁Ak": 8096,
      "▁restaurants": 8097,
      "angers": 8098,
      "Over": 8099,
      "erate": 8100,
      "▁perfectly": 8101,
      "vely": 8102,
      "eld": 8103,
      "▁talked": 8104,
      "title": 8105,
      "▁mountain": 8106,
      "izz": 8107,
      "LO": 8108,
      "▁Line": 8109,
      "▁templ": 8110,
      "▁Safety": 8111,
      "▁consideration": 8112,
      "▁crucial": 8113,
      "▁lect": 8114,
      "▁escape": 8115,
      "▁Gallery": 8116,
      "▁Anne": 8117,
      "▁funny": 8118,
      "▁enthus": 8119,
      "expected": 8120,
      "Bu": 8121,
      "▁personally": 8122,
      "▁Ros": 8123,
      "▁organis": 8124,
      "rient": 8125,
      "▁Unfortunately": 8126,
      "▁tum": 8127,
      "brid": 8128,
      "▁introduction": 8129,
      "▁sin": 8130,
      "▁enemy": 8131,
      "▁founder": 8132,
      "▁keeps": 8133,
      "riers": 8134,
      "▁hidden": 8135,
      "▁rein": 8136,
      "sole": 8137,
      "▁containing": 8138,
      "GA": 8139,
      "owing": 8140,
      "▁representation": 8141,
      "▁fairly": 8142,
      "▁Dream": 8143,
      "▁Albert": 8144,
      "▁Plus": 8145,
      "oven": 8146,
      "▁Hold": 8147,
      "ova": 8148,
      "tle": 8149,
      "▁joining": 8150,
      "Inst": 8151,
      "▁fruit": 8152,
      "▁deeply": 8153,
      "▁hits": 8154,
      "rations": 8155,
      "▁eating": 8156,
      "iously": 8157,
      "▁liquid": 8158,
      "▁lawyer": 8159,
      "▁western": 8160,
      "Wh": 8161,
      "alty": 8162,
      "▁marked": 8163,
      "letter": 8164,
      "▁diseases": 8165,
      "gage": 8166,
      "▁presents": 8167,
      "▁align": 8168,
      "annels": 8169,
      "▁Effect": 8170,
      "det": 8171,
      "▁split": 8172,
      "vol": 8173,
      "▁ly": 8174,
      "▁drag": 8175,
      "▁Jay": 8176,
      "▁NS": 8177,
      "pool": 8178,
      "▁Forest": 8179,
      "▁Kir": 8180,
      "▁vess": 8181,
      "▁ingred": 8182,
      "ikip": 8183,
      "▁weren": 8184,
      "▁extract": 8185,
      "▁}\r": 8186,
      "▁cutting": 8187,
      "▁constantly": 8188,
      "nesota": 8189,
      "▁Name": 8190,
      "▁coronavirus": 8191,
      "ventional": 8192,
      "▁pointed": 8193,
      "plete": 8194,
      "▁Gi": 8195,
      "▁gene": 8196,
      "PD": 8197,
      "At": 8198,
      "ulpt": 8199,
      "▁Victoria": 8200,
      "▁offices": 8201,
      "▁rig": 8202,
      "▁adventure": 8203,
      "▁exclusive": 8204,
      "▁formation": 8205,
      "RL": 8206,
      "▁Pict": 8207,
      "ito": 8208,
      "▁equivalent": 8209,
      "▁Fig": 8210,
      "▁neut": 8211,
      "ographer": 8212,
      "crib": 8213,
      "▁Os": 8214,
      "▁frust": 8215,
      "aze": 8216,
      "▁Defense": 8217,
      "▁controls": 8218,
      "▁Resources": 8219,
      "icing": 8220,
      "ji": 8221,
      "rary": 8222,
      "▁acknowled": 8223,
      "▁creates": 8224,
      "▁fulf": 8225,
      "▁Interest": 8226,
      "▁Philadelphia": 8227,
      "▁suffered": 8228,
      "▁versions": 8229,
      "▁gay": 8230,
      "UD": 8231,
      "▁designs": 8232,
      "▁Governor": 8233,
      "▁Ont": 8234,
      "bell": 8235,
      "▁airport": 8236,
      "********": 8237,
      "▁Oxford": 8238,
      "▁Learn": 8239,
      "▁solo": 8240,
      "▁spin": 8241,
      "▁concerning": 8242,
      "big": 8243,
      "Node": 8244,
      "▁Golden": 8245,
      "▁Kelly": 8246,
      "▁Liter": 8247,
      "▁Climate": 8248,
      "▁hurt": 8249,
      ",’": 8250,
      "▁Navy": 8251,
      "▁strange": 8252,
      "▁soil": 8253,
      "▁Images": 8254,
      "igious": 8255,
      "▁wins": 8256,
      "▁catal": 8257,
      "▁attempts": 8258,
      "elle": 8259,
      "oln": 8260,
      "▁Ast": 8261,
      "▁width": 8262,
      "';": 8263,
      "har": 8264,
      "▁giant": 8265,
      "▁noticed": 8266,
      "▁Miami": 8267,
      "▁regime": 8268,
      "())": 8269,
      "▁newspaper": 8270,
      "achusetts": 8271,
      "▁magic": 8272,
      "▁declared": 8273,
      "▁slowly": 8274,
      "▁Heart": 8275,
      "▁northern": 8276,
      "▁menu": 8277,
      "▁vice": 8278,
      "iley": 8279,
      "yo": 8280,
      "mathrm": 8281,
      "▁initially": 8282,
      "▁Airport": 8283,
      "inking": 8284,
      "otten": 8285,
      "▁colors": 8286,
      "▁purchased": 8287,
      "▁apps": 8288,
      "▁Wales": 8289,
      "▁Barb": 8290,
      "▁Marg": 8291,
      "▁representative": 8292,
      "ector": 8293,
      "▁batt": 8294,
      "▁desk": 8295,
      "▁Sky": 8296,
      "plom": 8297,
      "▁categories": 8298,
      "▁infect": 8299,
      "▁websites": 8300,
      "▁tiss": 8301,
      "pton": 8302,
      "▁Brother": 8303,
      "▁describes": 8304,
      "▁intellectual": 8305,
      "ocated": 8306,
      "ante": 8307,
      "▁interf": 8308,
      "ikipedia": 8309,
      "▁carefully": 8310,
      "▁В": 8311,
      "erent": 8312,
      "▁dogs": 8313,
      "agan": 8314,
      "▁indicate": 8315,
      "▁YO": 8316,
      "▁je": 8317,
      "▁voting": 8318,
      "▁Credit": 8319,
      "▁Six": 8320,
      "▁carrying": 8321,
      "roduction": 8322,
      "ync": 8323,
      "▁privile": 8324,
      "▁trav": 8325,
      "image": 8326,
      "▁ticket": 8327,
      "▁amounts": 8328,
      "▁restrictions": 8329,
      "▁Dave": 8330,
      "whel": 8331,
      "TO": 8332,
      "tau": 8333,
      "tical": 8334,
      "▁Judge": 8335,
      "▁unus": 8336,
      "▁sequence": 8337,
      "▁flag": 8338,
      "▁poverty": 8339,
      "after": 8340,
      "▁consumption": 8341,
      "icken": 8342,
      "udes": 8343,
      "boy": 8344,
      "▁imper": 8345,
      "onder": 8346,
      "figure": 8347,
      "web": 8348,
      "py": 8349,
      "▁Room": 8350,
      "▁una": 8351,
      "▁Rail": 8352,
      "▁Collection": 8353,
      "MM": 8354,
      "▁improving": 8355,
      "Path": 8356,
      "▁exposed": 8357,
      "▁Cooper": 8358,
      "pie": 8359,
      "▁Analysis": 8360,
      "▁Ut": 8361,
      "▁Jam": 8362,
      "▁indicated": 8363,
      "▁democracy": 8364,
      "▁hur": 8365,
      "▁filter": 8366,
      "▁likes": 8367,
      "▁submit": 8368,
      "▁export": 8369,
      "▁Five": 8370,
      "▁prime": 8371,
      "▁Na": 8372,
      "▁Represent": 8373,
      "eties": 8374,
      "▁proport": 8375,
      "▁Alexander": 8376,
      "ospitals": 8377,
      "Service": 8378,
      "▁spokes": 8379,
      "▁Jason": 8380,
      "uties": 8381,
      "▁reliable": 8382,
      "▁Republicans": 8383,
      "▁Spirit": 8384,
      "▁Minnesota": 8385,
      "▁hyper": 8386,
      "▁Berlin": 8387,
      "▁inner": 8388,
      "▁Prior": 8389,
      "▁Without": 8390,
      "▁conclusion": 8391,
      "▁wheel": 8392,
      "▁solve": 8393,
      "onna": 8394,
      "▁doctors": 8395,
      "▁universe": 8396,
      "▁thousand": 8397,
      "hist": 8398,
      "▁ru": 8399,
      "▁Working": 8400,
      "igenous": 8401,
      "▁strongly": 8402,
      "▁industries": 8403,
      "▁institution": 8404,
      "▁rose": 8405,
      "vi": 8406,
      "▁Leon": 8407,
      "▁Jane": 8408,
      "▁diam": 8409,
      "▁Student": 8410,
      "▁aims": 8411,
      "vision": 8412,
      "▁explo": 8413,
      "▁trends": 8414,
      "vas": 8415,
      "▁suddenly": 8416,
      "Form": 8417,
      "▁injured": 8418,
      "▁PRO": 8419,
      "▁Map": 8420,
      "▁domin": 8421,
      "▁tor": 8422,
      "▁Sem": 8423,
      "aration": 8424,
      "▁Football": 8425,
      "acher": 8426,
      "times": 8427,
      "▁Annual": 8428,
      "▁protocol": 8429,
      "▁Veg": 8430,
      "▁android": 8431,
      "▁returning": 8432,
      "▁Station": 8433,
      "esy": 8434,
      "So": 8435,
      "▁reputation": 8436,
      "api": 8437,
      "ennis": 8438,
      "▁aside": 8439,
      "▁permission": 8440,
      "▁eligible": 8441,
      "▁myth": 8442,
      "▁membership": 8443,
      "▁lights": 8444,
      "▁titles": 8445,
      "▁managing": 8446,
      "▁gap": 8447,
      "▁warrant": 8448,
      "apse": 8449,
      "▁Authority": 8450,
      "ilde": 8451,
      "▁Legal": 8452,
      "▁presidential": 8453,
      "▁folks": 8454,
      "▁chart": 8455,
      "▁tips": 8456,
      "▁browser": 8457,
      "##": 8458,
      "▁troops": 8459,
      "▁monthly": 8460,
      "▁windows": 8461,
      "oured": 8462,
      "▁franch": 8463,
      "owed": 8464,
      "▁deploy": 8465,
      "▁characteristics": 8466,
      "▁colleagues": 8467,
      "base": 8468,
      "▁guidelines": 8469,
      "omic": 8470,
      "▁iPhone": 8471,
      "▁Massachusetts": 8472,
      "ilst": 8473,
      "▁Arm": 8474,
      "raction": 8475,
      "▁suitable": 8476,
      "▁chose": 8477,
      "▁crash": 8478,
      "▁perm": 8479,
      "iah": 8480,
      "▁Protection": 8481,
      "itis": 8482,
      "▁stations": 8483,
      "dney": 8484,
      "▁electricity": 8485,
      "▁childhood": 8486,
      "▁Cry": 8487,
      "anchester": 8488,
      "▁ratio": 8489,
      "abb": 8490,
      "▁affordable": 8491,
      "▁Base": 8492,
      "▁visible": 8493,
      "▁Gro": 8494,
      "allas": 8495,
      "▁Living": 8496,
      "▁noise": 8497,
      "▁Yeah": 8498,
      "▁reserved": 8499,
      "▁consists": 8500,
      "eman": 8501,
      "▁Being": 8502,
      "urse": 8503,
      "Comm": 8504,
      "start": 8505,
      "▁Simon": 8506,
      "▁Prop": 8507,
      "▁Ross": 8508,
      "LA": 8509,
      "▁Gree": 8510,
      "▁covering": 8511,
      "▁warning": 8512,
      "▁guilty": 8513,
      "▁priority": 8514,
      "▁Anton": 8515,
      "isted": 8516,
      "▁ages": 8517,
      "▁feelings": 8518,
      "▁surf": 8519,
      "▁skill": 8520,
      "CP": 8521,
      "▁reward": 8522,
      "▁Sound": 8523,
      "▁crack": 8524,
      "ificial": 8525,
      "▁Final": 8526,
      "▁silver": 8527,
      "check": 8528,
      "▁crimes": 8529,
      "▁pitch": 8530,
      "▁merely": 8531,
      "ви": 8532,
      "▁admitted": 8533,
      "▁Type": 8534,
      "achelor": 8535,
      "▁tall": 8536,
      "oked": 8537,
      "ni": 8538,
      "▁seasons": 8539,
      "▁objective": 8540,
      "inator": 8541,
      "▁Constitution": 8542,
      "▁arguments": 8543,
      "▁Innov": 8544,
      "▁languages": 8545,
      "fty": 8546,
      "▁Need": 8547,
      "▁Moreover": 8548,
      "▁secondary": 8549,
      "▁Learning": 8550,
      "▁connections": 8551,
      "▁technique": 8552,
      "▁philosophy": 8553,
      "onsin": 8554,
      "▁phr": 8555,
      "▁discount": 8556,
      "▁Anthony": 8557,
      "▁sup": 8558,
      "▁glad": 8559,
      "▁voc": 8560,
      "▁farmers": 8561,
      "▁infection": 8562,
      "▁Oak": 8563,
      "▁cabin": 8564,
      "▁acquired": 8565,
      "▁fifth": 8566,
      "olean": 8567,
      "▁SO": 8568,
      "IB": 8569,
      "FA": 8570,
      "rolled": 8571,
      "▁Recent": 8572,
      "▁somewhere": 8573,
      "struct": 8574,
      "▁EN": 8575,
      "▁criteria": 8576,
      "oly": 8577,
      "▁Corn": 8578,
      "block": 8579,
      "▁Saudi": 8580,
      "▁causing": 8581,
      "▁Sometimes": 8582,
      "▁Cert": 8583,
      "isconsin": 8584,
      "▁paragraph": 8585,
      "▁drawing": 8586,
      "▁judgment": 8587,
      "▁interior": 8588,
      "olid": 8589,
      "tainment": 8590,
      "isode": 8591,
      "▁surve": 8592,
      "▁SS": 8593,
      "aturally": 8594,
      "▁proved": 8595,
      ".</": 8596,
      "java": 8597,
      "uted": 8598,
      "▁brilliant": 8599,
      "▁adj": 8600,
      "▁Advis": 8601,
      "EV": 8602,
      "▁Assembly": 8603,
      "rine": 8604,
      "spe": 8605,
      "▁anniversary": 8606,
      "ding": 8607,
      "▁producing": 8608,
      "▁Moh": 8609,
      "▁principle": 8610,
      "▁Ult": 8611,
      "lar": 8612,
      "▁Finance": 8613,
      "non": 8614,
      "▁implemented": 8615,
      "called": 8616,
      "^\\": 8617,
      "una": 8618,
      "System": 8619,
      "low": 8620,
      "▁regulatory": 8621,
      "▁ocean": 8622,
      "▁frequency": 8623,
      "▁Relations": 8624,
      "▁CS": 8625,
      "▁ET": 8626,
      "▁Number": 8627,
      "▁laid": 8628,
      "▁requirement": 8629,
      "▁===": 8630,
      "▁insert": 8631,
      "pdf": 8632,
      "▁Kansas": 8633,
      "▁tiny": 8634,
      "▁recommendations": 8635,
      "last": 8636,
      "lers": 8637,
      "▁WW": 8638,
      "▁grab": 8639,
      "config": 8640,
      "ishment": 8641,
      "▁literally": 8642,
      "▁blind": 8643,
      "▁PA": 8644,
      "▁Michel": 8645,
      "▁PH": 8646,
      "▁Harris": 8647,
      "ixture": 8648,
      "ds": 8649,
      "▁arbit": 8650,
      "▁Agreement": 8651,
      "▁Bry": 8652,
      "gamma": 8653,
      "▁Based": 8654,
      "▁lawsu": 8655,
      "▁contracts": 8656,
      "istent": 8657,
      "▁hoping": 8658,
      "▁meat": 8659,
      "▁tact": 8660,
      "▁Der": 8661,
      "yr": 8662,
      "wind": 8663,
      "▁depends": 8664,
      "▁Atlantic": 8665,
      "▁Price": 8666,
      "input": 8667,
      "▁anyway": 8668,
      "▁thinks": 8669,
      "emb": 8670,
      ",'": 8671,
      "▁Tam": 8672,
      "roit": 8673,
      "▁distributed": 8674,
      "ainer": 8675,
      "▁legit": 8676,
      "▁lunch": 8677,
      "▁Third": 8678,
      "!--": 8679,
      "▁seats": 8680,
      "ypes": 8681,
      "sect": 8682,
      "▁CR": 8683,
      "▁breaking": 8684,
      "▁gent": 8685,
      "▁matches": 8686,
      "yard": 8687,
      "range": 8688,
      "▁responses": 8689,
      "▁installation": 8690,
      "▁Industry": 8691,
      "▁regulation": 8692,
      "▁Marketing": 8693,
      "▁Roy": 8694,
      "▁cinem": 8695,
      "▁genu": 8696,
      "▁sections": 8697,
      "▁neck": 8698,
      "▁TR": 8699,
      "▁Nigeria": 8700,
      "▁NEW": 8701,
      "tics": 8702,
      "▁OS": 8703,
      "ugh": 8704,
      "▁Grow": 8705,
      "▁podcast": 8706,
      "▁comedy": 8707,
      "+\\": 8708,
      "LS": 8709,
      "▁opposed": 8710,
      "▁vit": 8711,
      "▁Gh": 8712,
      "ching": 8713,
      "▁attached": 8714,
      "▁Las": 8715,
      "rition": 8716,
      "▁corresponding": 8717,
      "▁Memorial": 8718,
      "oga": 8719,
      "▁tea": 8720,
      "craft": 8721,
      "sters": 8722,
      "▁tox": 8723,
      "▁stead": 8724,
      "ocratic": 8725,
      "▁Website": 8726,
      "Att": 8727,
      "▁interact": 8728,
      "▁requests": 8729,
      "being": 8730,
      "▁inspiration": 8731,
      "▁Budd": 8732,
      "▁destination": 8733,
      "pen": 8734,
      "anz": 8735,
      "▁Naz": 8736,
      "▁mac": 8737,
      "▁Nob": 8738,
      "▁Front": 8739,
      "She": 8740,
      "Config": 8741,
      "▁equity": 8742,
      "je": 8743,
      "▁proven": 8744,
      "▁Stone": 8745,
      "incoln": 8746,
      "▁guarantee": 8747,
      "]{": 8748,
      "ika": 8749,
      "▁Square": 8750,
      "▁Vietnam": 8751,
      "▁apartment": 8752,
      "▁Doctor": 8753,
      "▁reducing": 8754,
      "▁votes": 8755,
      "▁Regional": 8756,
      "▁Ga": 8757,
      "▁centers": 8758,
      "▁grass": 8759,
      "▁HD": 8760,
      "▁Diego": 8761,
      "▁Lib": 8762,
      "shire": 8763,
      "Co": 8764,
      "Field": 8765,
      "▁pleased": 8766,
      "▁absor": 8767,
      "▁/>": 8768,
      "ASS": 8769,
      "▁resulted": 8770,
      "▁saved": 8771,
      "▁Ho": 8772,
      "=\"../../": 8773,
      "▁interaction": 8774,
      "▁decline": 8775,
      "lected": 8776,
      "▁Marsh": 8777,
      "▁Politics": 8778,
      "▁Revolution": 8779,
      "▁Gun": 8780,
      "▁Process": 8781,
      "▁exclud": 8782,
      "▁involves": 8783,
      "▁LLC": 8784,
      "▁distingu": 8785,
      "▁Il": 8786,
      "ockey": 8787,
      "▁Natural": 8788,
      "info": 8789,
      "▁immun": 8790,
      "▁frag": 8791,
      "▁insight": 8792,
      "▁Nature": 8793,
      "chi": 8794,
      "▁demands": 8795,
      "ounded": 8796,
      "▁jurisd": 8797,
      "▁buff": 8798,
      "▁Edition": 8799,
      "▁organic": 8800,
      "▁capabilities": 8801,
      "▁territory": 8802,
      "▁Manchester": 8803,
      "thm": 8804,
      "elfare": 8805,
      "edge": 8806,
      "▁Training": 8807,
      "▁branch": 8808,
      "uce": 8809,
      "▁Mother": 8810,
      "aya": 8811,
      "▁Soviet": 8812,
      "sq": 8813,
      "▁immigration": 8814,
      "$\\": 8815,
      "▁personnel": 8816,
      "▁brown": 8817,
      "▁employed": 8818,
      "▁evaluation": 8819,
      "esh": 8820,
      "▁Moon": 8821,
      "Index": 8822,
      "ailability": 8823,
      "▁memories": 8824,
      "▁assistant": 8825,
      "▁pilot": 8826,
      "▁kil": 8827,
      "cul": 8828,
      "▁Championship": 8829,
      "▁falling": 8830,
      "▁Gil": 8831,
      "ando": 8832,
      "space": 8833,
      "▁gained": 8834,
      "▁boot": 8835,
      "▁stable": 8836,
      "▁absolute": 8837,
      "max": 8838,
      "▁Drug": 8839,
      "▁Cele": 8840,
      "Item": 8841,
      "▁Ocean": 8842,
      "▁Comment": 8843,
      ")}": 8844,
      "▁entity": 8845,
      "▁interviews": 8846,
      "axy": 8847,
      "▁Afghanistan": 8848,
      "▁sessions": 8849,
      "▁intention": 8850,
      "rat": 8851,
      "▁settlement": 8852,
      "▁Seattle": 8853,
      "▁explos": 8854,
      "UB": 8855,
      "▁regardless": 8856,
      "▁Peace": 8857,
      "▁Past": 8858,
      "▁ble": 8859,
      "▁substantial": 8860,
      "▁transaction": 8861,
      "▁Sydney": 8862,
      "▁sugar": 8863,
      "▁Entertainment": 8864,
      "▁marks": 8865,
      "▁channels": 8866,
      "▁Interview": 8867,
      "▁Chall": 8868,
      "▁compensation": 8869,
      "▁supplies": 8870,
      "▁Years": 8871,
      "▁recover": 8872,
      "ée": 8873,
      "▁trib": 8874,
      "▁gal": 8875,
      "▁diet": 8876,
      "▁concrete": 8877,
      "▁vert": 8878,
      "▁crazy": 8879,
      "ORE": 8880,
      "▁Empire": 8881,
      "▁Lyn": 8882,
      "▁mg": 8883,
      "▁Rick": 8884,
      "▁Share": 8885,
      "▁expanded": 8886,
      "ige": 8887,
      "▁horror": 8888,
      "Sp": 8889,
      "enders": 8890,
      "▁dating": 8891,
      "▁Hig": 8892,
      "andy": 8893,
      "▁alert": 8894,
      "▁forever": 8895,
      "▁targets": 8896,
      "▁overwhel": 8897,
      "vard": 8898,
      "▁corn": 8899,
      "iscal": 8900,
      "▁collective": 8901,
      "▁cyber": 8902,
      "dep": 8903,
      "▁Sex": 8904,
      "igate": 8905,
      "▁Sant": 8906,
      "▁ceremony": 8907,
      "▁rear": 8908,
      "▁AC": 8909,
      "▁dies": 8910,
      "▁emerging": 8911,
      "▁appointment": 8912,
      "▁rapidly": 8913,
      "organ": 8914,
      "eh": 8915,
      "▁inject": 8916,
      "▁basketball": 8917,
      "▁everybody": 8918,
      "▁tables": 8919,
      "▁Anderson": 8920,
      "iffs": 8921,
      "▁puts": 8922,
      "sim": 8923,
      "node": 8924,
      "Hand": 8925,
      "oen": 8926,
      "▁relating": 8927,
      "▁behaviour": 8928,
      "▁subsequent": 8929,
      "ami": 8930,
      "▁tasks": 8931,
      "▁Wisconsin": 8932,
      "▁soph": 8933,
      "▁opens": 8934,
      "ди": 8935,
      "▁Political": 8936,
      "roller": 8937,
      "▁shouldn": 8938,
      "pay": 8939,
      "▁sending": 8940,
      "herent": 8941,
      "partial": 8942,
      "olly": 8943,
      "▁Diff": 8944,
      "regon": 8945,
      "▁qualified": 8946,
      "ordinary": 8947,
      "▁confident": 8948,
      "▁Ontario": 8949,
      "▁equally": 8950,
      "abil": 8951,
      "riving": 8952,
      "▁Mountain": 8953,
      "▁instructions": 8954,
      "roke": 8955,
      "▁bike": 8956,
      "▁Christians": 8957,
      "len": 8958,
      "▁extend": 8959,
      "▁HT": 8960,
      "▁essentially": 8961,
      "▁lessons": 8962,
      "nab": 8963,
      "▁Mess": 8964,
      "rection": 8965,
      "▁Furthermore": 8966,
      "▁bands": 8967,
      "▁acceler": 8968,
      "▁Sales": 8969,
      "▁waters": 8970,
      "sea": 8971,
      "▁Burn": 8972,
      "▁essay": 8973,
      "covery": 8974,
      "engers": 8975,
      "▁sacr": 8976,
      "▁destroyed": 8977,
      "PE": 8978,
      "MC": 8979,
      "Fr": 8980,
      "▁absence": 8981,
      "roph": 8982,
      "▁Az": 8983,
      "otted": 8984,
      "▁Silver": 8985,
      "▁trials": 8986,
      "▁vulnerable": 8987,
      "onds": 8988,
      "▁stages": 8989,
      "▁Hind": 8990,
      "▁Additionally": 8991,
      "▁errors": 8992,
      "▁occurs": 8993,
      "”)": 8994,
      "▁refused": 8995,
      "inch": 8996,
      "▁Tai": 8997,
      "▁pace": 8998,
      "▁awesome": 8999,
      "▁Architect": 9000,
      "rett": 9001,
      "TD": 9002,
      "mo": 9003,
      "Out": 9004,
      "▁copyright": 9005,
      "▁operator": 9006,
      "▁crypt": 9007,
      "ULL": 9008,
      "▁hole": 9009,
      "▁milk": 9010,
      "▁HIV": 9011,
      "eding": 9012,
      "▁ax": 9013,
      "▁universities": 9014,
      "▁inhib": 9015,
      "thur": 9016,
      "▁confront": 9017,
      "flix": 9018,
      "ori": 9019,
      "▁developers": 9020,
      "nie": 9021,
      "inar": 9022,
      "Request": 9023,
      "▁occas": 9024,
      "▁stored": 9025,
      "ictions": 9026,
      "▁tournament": 9027,
      "▁cm": 9028,
      "▁stronger": 9029,
      "▁EV": 9030,
      "▁Mit": 9031,
      "agen": 9032,
      "▁roy": 9033,
      "first": 9034,
      "▁scores": 9035,
      "▁affili": 9036,
      "▁reveal": 9037,
      "▁focuses": 9038,
      "▁adequ": 9039,
      "One": 9040,
      "atern": 9041,
      "▁weekly": 9042,
      "▁Austin": 9043,
      "object": 9044,
      "▁IV": 9045,
      "exp": 9046,
      "▁ruling": 9047,
      "▁machines": 9048,
      "▁rum": 9049,
      "IST": 9050,
      "▁withdraw": 9051,
      "ма": 9052,
      "▁Opp": 9053,
      "osystem": 9054,
      "Ps": 9055,
      "▁Month": 9056,
      "▁bat": 9057,
      "▁episodes": 9058,
      "▁documentary": 9059,
      "▁Visit": 9060,
      "likely": 9061,
      "▁Schools": 9062,
      "essee": 9063,
      "▁Gene": 9064,
      "▁contributed": 9065,
      "cha": 9066,
      "▁heavily": 9067,
      "rait": 9068,
      "▁Talk": 9069,
      "*}": 9070,
      "▁satell": 9071,
      "Map": 9072,
      "▁pit": 9073,
      "▁encouraged": 9074,
      "▁cha": 9075,
      "▁File": 9076,
      "elson": 9077,
      "orable": 9078,
      "ME": 9079,
      "▁roads": 9080,
      "▁voted": 9081,
      "▁lifest": 9082,
      "▁thorough": 9083,
      "▁Cambridge": 9084,
      "eland": 9085,
      "▁yellow": 9086,
      "intend": 9087,
      "ão": 9088,
      "asty": 9089,
      "▁compare": 9090,
      "▁struck": 9091,
      "▁Laure": 9092,
      "▁Integ": 9093,
      "enter": 9094,
      "▁tag": 9095,
      "▁Balt": 9096,
      "▁premium": 9097,
      "Info": 9098,
      "▁variable": 9099,
      "▁ethnic": 9100,
      "leq": 9101,
      "▁Limited": 9102,
      "▁Youth": 9103,
      "iy": 9104,
      "delta": 9105,
      "▁functional": 9106,
      "Array": 9107,
      "▁Bridge": 9108,
      "▁outdoor": 9109,
      "▁raw": 9110,
      "▁Object": 9111,
      "▁dreams": 9112,
      "▁initiatives": 9113,
      "▁everywhere": 9114,
      "▁burd": 9115,
      "▁movements": 9116,
      "Table": 9117,
      "▁boss": 9118,
      "erk": 9119,
      "▁discovery": 9120,
      "▁assigned": 9121,
      "▁survive": 9122,
      "////": 9123,
      "OK": 9124,
      "▁bench": 9125,
      "▁fabric": 9126,
      "▁Dog": 9127,
      "▁survival": 9128,
      "nu": 9129,
      "▁Gard": 9130,
      "From": 9131,
      "ools": 9132,
      "Reg": 9133,
      "▁(!": 9134,
      "▁Nether": 9135,
      "watch": 9136,
      "encing": 9137,
      "▁uniform": 9138,
      "▁displ": 9139,
      "▁Morgan": 9140,
      "has": 9141,
      "▁Lincoln": 9142,
      "▁announcement": 9143,
      "▁cuts": 9144,
      "▁Keep": 9145,
      "odge": 9146,
      "▁addressed": 9147,
      "▁representing": 9148,
      "ulum": 9149,
      "▁Private": 9150,
      "▁shots": 9151,
      "▁Very": 9152,
      "▁Garden": 9153,
      "▁cooperation": 9154,
      "▁residential": 9155,
      "▁transmission": 9156,
      "▁birthday": 9157,
      "GE": 9158,
      "cut": 9159,
      "ingham": 9160,
      "isms": 9161,
      "fire": 9162,
      "▁Bit": 9163,
      "orted": 9164,
      "▁tort": 9165,
      "▁breath": 9166,
      "▁argue": 9167,
      "▁radical": 9168,
      "xiety": 9169,
      "ben": 9170,
      "▁loves": 9171,
      "▁fewer": 9172,
      "allel": 9173,
      "unicipal": 9174,
      "▁threats": 9175,
      "bass": 9176,
      "coin": 9177,
      "▁violent": 9178,
      "dt": 9179,
      "▁flying": 9180,
      "▁Moore": 9181,
      "▁Given": 9182,
      "iatric": 9183,
      "▁closing": 9184,
      "imp": 9185,
      "▁Norm": 9186,
      "▁trick": 9187,
      "▁None": 9188,
      "▁preced": 9189,
      "▁commonly": 9190,
      "▁investments": 9191,
      "▁nic": 9192,
      "▁Tok": 9193,
      "▁sharp": 9194,
      "▁fault": 9195,
      "rep": 9196,
      "▁Ide": 9197,
      "▁officially": 9198,
      "Gener": 9199,
      "▁complicated": 9200,
      "▁divided": 9201,
      "▁]": 9202,
      "▁legacy": 9203,
      "ouch": 9204,
      "andal": 9205,
      "▁Allen": 9206,
      "▁demonstrated": 9207,
      "strong": 9208,
      "▁theatre": 9209,
      "▁Hawai": 9210,
      "▁Text": 9211,
      "▁retirement": 9212,
      "▁meets": 9213,
      "▁Bow": 9214,
[...]
